/**
  ******************************************************************************
  * @file    network_data_params.c
  * @author  AST Embedded Analytics Research Platform
  * @date    2026-04-20T16:12:20+0200
  * @brief   AI Tool Automatic Code Generator for Embedded NN computing
  ******************************************************************************
  * Copyright (c) 2026 STMicroelectronics.
  * All rights reserved.
  *
  * This software is licensed under terms that can be found in the LICENSE file
  * in the root directory of this software component.
  * If no LICENSE file comes with this software, it is provided AS-IS.
  ******************************************************************************
  */

#include "network_data_params.h"


/**  Activations Section  ****************************************************/
ai_handle g_network_activations_table[1 + 2] = {
  AI_HANDLE_PTR(AI_MAGIC_MARKER),
  AI_HANDLE_PTR(NULL),
  AI_HANDLE_PTR(AI_MAGIC_MARKER),
};




/**  Weights Section  ********************************************************/
AI_ALIGNED(32)
const ai_u64 s_network_weights_array_u64[48151] = {
  0x3d06c0aebdbfaee8U, 0x3e03199ebd019483U, 0xbd89ad2fbe20cf25U, 0xbe1d0f14bdda58a7U,
  0x3dfe66acbda108a3U, 0x3df0cc04bdc66e96U, 0x3e015b52be057b70U, 0xbcf687dfbd5a6de1U,
  0xbd0510dcbdf94906U, 0xbd35c57a3dbde289U, 0x3dd9fd1c3d71d853U, 0xbd5c049b3e115df2U,
  0x3de49e42be4793bbU, 0x3d1326233e23f1adU, 0xbdfb61d5bd528c13U, 0x3db64d2e3d1f1318U,
  0x3d44b9f2be177077U, 0x3e46f6183d448be2U, 0xbce2a3d7bdcde53aU, 0x3dcdf731bdd8cee5U,
  0x3dadcd8c3d054278U, 0x3e130887be0abfa3U, 0xbcd46ef2bde7955bU, 0xbdb62f9dbe35c9bdU,
  0xbd1eaba73db04022U, 0x3d8bf47cbdc488ecU, 0x3d16d4c4bbf57416U, 0xbd6fdeafbdc48006U,
  0x3dee050bbd2d99c8U, 0xbc1374bcbdb3c0a7U, 0xbdb702f8bdbb0104U, 0xbde21eff3cf45628U,
  0xbdc03a7a3d3cb4f0U, 0xbe1850e53df40e3cU, 0xbda66155bd9aaf26U, 0xbe12d271bde20d08U,
  0x3db16495be07b800U, 0x3daed9acbd79f24eU, 0x3da9c078bda48decU, 0xbca1eec03dea91ffU,
  0xbe1219c8bdc49a08U, 0xbd945fe23dbb4bd6U, 0x3ddb03973b4d4755U, 0xbd1209cfbd082590U,
  0x3ddafd55bbd484ffU, 0xbda15ab4bb28b5b0U, 0x3e08228bbe2de583U, 0x3e1a716fbd897d39U,
  0x3d4fd718be1559b1U, 0xbdf326b33da127c2U, 0x3dcabe12bdf063b7U, 0xbde9b8e3be158d38U,
  0x3d9dc66abd8effeaU, 0xbe0b362bbd3df462U, 0xbd524d8abd69474eU, 0xbe19a11fbd78d396U,
  0xbd4de2a0be0e06fcU, 0x3c3ac4e0bd7b3108U, 0x3e093ae23d15d8f0U, 0x3d8a301cbdadd9bfU,
  0xbdcc309fbcc99747U, 0x3dcbb747bcc24b7cU, 0x3e2ca2efbb639966U, 0xbd34c0bd3d373637U,
  0xbcc06fc33dad5a5bU, 0x3e0444cb3d807081U, 0xbdc4dc393ddf587bU, 0x3e0bcd5ebd7df4f0U,
  0x3d211acabdaac854U, 0xbd58f07e3d23e6eaU, 0x3e0bf974bd80919cU, 0xbe17f86f3d698028U,
  0x3d8fb2ecbda64dbbU, 0x3d7b5c40be14be84U, 0xbdcf1cbebdfb0ab7U, 0x3c6b01f7bd5aa533U,
  0x3db2c310bd89d8cfU, 0xbdf4123f3e1c2210U, 0xbe07147b3cabae93U, 0x3e09cc1e3c403db9U,
  0x3dddadf83cd53c00U, 0xbe061d8d3e215bf6U, 0xbe18ede83c03083fU, 0x3e255ea6be10c9c2U,
  0xbdd1f8703dfbc3e6U, 0xbbe839bc3d4c2e73U, 0xbd49b1c53d8c8723U, 0x3e0e46fbbe46508eU,
  0xbdb58eeb3d8b6909U, 0x3dc405ceba828645U, 0x3dca12863dbad3e1U, 0x3dc51011bdd6f030U,
  0xbd93a8d63e5f0721U, 0xbb62574d3e14da56U, 0xbd63cf7ebda397c8U, 0x3dd402edbe090939U,
  0xbda9272d3e1db6faU, 0x3db1374f3d8d6bb6U, 0xbe1ff7423d5ea538U, 0xbdb329813d9a6aeaU,
  0x3dc62871bde88a9dU, 0xbe072aa83db34f2cU, 0x3cada234bd7a78bcU, 0xbe055a613dc1b648U,
  0xbe12c95f3d79c143U, 0x3e083b3c3dfba6b8U, 0xbdc7132a3d664a62U, 0x3e8c10e03e51992bU,
  0xbe09a4a9bdc310e6U, 0xbcafd9a53bc84ba8U, 0xbdb9aaeabd9ef212U, 0x3dcfe5fdbc518166U,
  0xbd18ec0c3ea23b3bU, 0x3d6b3104bdc97596U, 0x3d7ddff73d8981daU, 0xbdf61fc4bd178108U,
  0x3dc30f4b3dc71b0aU, 0xbdb86defbd19bb17U, 0x3b16eac2bca45b5eU, 0xbc855be1bd236cddU,
  0x3d2fd33a3c0cfae6U, 0x3d80a8f33c1221a2U, 0xbe1b6f98bcfcce7fU, 0xbdc1f2a33c8ebf19U,
  0xbdb3bf5e3e292283U, 0xbcebb8bebd60e425U, 0x3d9717653e13289fU, 0xbe38ef1ebdd95c8cU,
  0xbe0127b23dd335d2U, 0x3e15ae2ebda811d5U, 0xbd9193e73d904d4dU, 0x3d206b1ebdc7eca0U,
  0xbda96845be371d7aU, 0x3c762b703c7d8af3U, 0x3db72b683da9f732U, 0x3ba5f7fd3db1b672U,
  0xbd3e8a463cc1c849U, 0x3c90cdbe3d91141dU, 0xbe0ee8a6bd23c314U, 0x3bf90080be193b60U,
  0xbcb007e93df0e804U, 0xbb99faacbd834705U, 0xbd3d46f83e289c09U, 0xbda0edccbd2a5066U,
  0x3c6f9b5f3c51f464U, 0xbdb06d7b3d6ec1feU, 0x3dae81143cd8ef12U, 0x3da613bc3e3f2935U,
  0x3c5aec543dd70649U, 0xbcdbe63bbdcf624cU, 0xbdc54160bde96cfcU, 0x3df21088bdec51c1U,
  0x3e563661be62fabeU, 0x3d1fbaca3e055201U, 0x3cf18f3dbd4ff1bcU, 0xbdf10742bc440182U,
  0x3d9b19cdbdbd4f16U, 0x3ede3db2be15539aU, 0x3c6caf103e20be04U, 0x3d55956e3caf7a8dU,
  0x3dd67cc13aa06522U, 0x3e056badbdaf60e2U, 0x3c091643be2fa3b1U, 0x3d0c787fbdcf6135U,
  0xbdadc9d33d880ff2U, 0xbe0106b33c9a7e39U, 0xbe154758be0ccc70U, 0x3dfa7d763d0dd791U,
  0x39ee82573d22603fU, 0xbdf2fbf5bc10c631U, 0xbdee4437bda68f35U, 0xbe1e93a63e276117U,
  0xbdd5e0ef3d61a10dU, 0xbc1518293d327a42U, 0xbbd96da63cfac013U, 0xbda8322d3d2ef888U,
  0x3d884566be1bfcb3U, 0xbd2678ea3c9b7d7bU, 0x3e043a72be060870U, 0xbc4c5eabbe2036b5U,
  0xbce8aa443d9f514bU, 0xbdb57c90be1517daU, 0x3c79704d3cf3f8c5U, 0x3d98cafa3e3d9373U,
  0x3d0c0132be0f4279U, 0x3b6432b3bd42739cU, 0xbda4d97d3dcc2ff8U, 0xbdbde4e23e03c499U,
  0x3dbd2f393e230e74U, 0x3da4f8af3e35705bU, 0xbd10aa0d3cdc25c2U, 0xbda7622e3d111da9U,
  0x3ce55801bc311901U, 0xbc556267bcba7e2eU, 0x3d7b6321be19d18bU, 0x3dc441c63d23615cU,
  0xbda07ba63de5bb3fU, 0xbe802625be1586aaU, 0x3e00bc13bd36c4abU, 0x3d2230ed3e1c5563U,
  0x3df96d683d14c152U, 0x3d370262bd5d39c4U, 0x3e4dbb343e4f5524U, 0xbd543df63d1b4dc5U,
  0x3adbe74fbe2e0945U, 0x3dbe5aa2bd10ce47U, 0x399f67e3bc9d8a0cU, 0x3e335ce5be681163U,
  0xbb72288abc653647U, 0x3c560705bdd75b91U, 0xbd864e943df41c04U, 0xbd95e46fbe124c1eU,
  0x3d737c78bd9c9b1bU, 0x3d0a0b183d50fff8U, 0xbdfb731dbe151538U, 0xbd4916fcbe091e34U,
  0xbd40a12a3d6f0758U, 0x3e11536a3dc33ebeU, 0xbe091014be17f5d6U, 0xbe1254e5bb8d25c0U,
  0xbda606a43d2f0b04U, 0xbe1fecbbbe16a7fbU, 0x3d5029963dac2bc6U, 0xbd76d9a1bdfffe8bU,
  0x3de265c9be1576d6U, 0xbdd350c3be1102a5U, 0xbd185958bd8d7ce6U, 0x3c8b8958be01f916U,
  0x3e134fdebda5499bU, 0x3e10743cbcdb9be4U, 0xbdd4adc93dc69df7U, 0xbde55575bcb1d273U,
  0x3cc57344bdcf1997U, 0xbd9ca3553ddd6126U, 0x3e241ca1bd7adfd4U, 0xbcc54a28bbc45cc0U,
  0xbddb3a88bdaccb09U, 0x3e0721e4be080bdcU, 0x3d101e70bdc2c186U, 0xbdddb7eebe061df5U,
  0x3e06b4c8be1412c7U, 0x3c9e2a03be1c238aU, 0x3d5f50853dc24599U, 0x3b91756c3df8a01aU,
  0xbe131ac03d730ab7U, 0x3d063a97bcdaf4e2U, 0x3c83f92fbc972a5fU, 0x3e479cb0bd3a4d89U,
  0x3b7c41253d3ea99cU, 0x3bd67591bc72300dU, 0xbc97b538bdb6f789U, 0xbc4a4a903bc148a0U,
  0x3de7fb38bdfd9d4aU, 0xbda58e783cc1f560U, 0xbe0190bc3de2a4a0U, 0xbd82b6b2bcce48e0U,
  0x3dd9355cbdbce7fbU, 0x3ea06a2b3c4de366U, 0x3dabbf6e3bb983e9U, 0x3d5c67c1bd183e7cU,
  0x3d2fe21dbd22e4aaU, 0xbd26fe6abdf712a7U, 0x3d61dc443d02a324U, 0x3e0d2892be11d689U,
  0xbe03cd343e0061f0U, 0x3dc3fe8c3c289fe3U, 0xbdc21c513c6208cdU, 0xbdf301cabc22dba3U,
  0x3e197960bdd4e817U, 0x3ccb81503dca99c9U, 0xbb7ed9d43ca0c371U, 0x3d7caa18bd4b1ee0U,
  0x3e8a69633d091d02U, 0x3cc08838be0dae80U, 0x3dc5eb72bd6bee7bU, 0xbdbdd6a93c2db397U,
  0x3db57e3e3b7d7f92U, 0x3d586f633e3433aaU, 0x3d24a2cb3e40c528U, 0x3dcbfbd33d984d5bU,
  0xbd40bef23c83a638U, 0xbcda5d44bccb7f38U, 0x3c65d6d03ccbc5b8U, 0xbdae01fbbdf17741U,
  0xbe198654bdc54cdeU, 0x3d94ec5b3d99d300U, 0x3c154977bdbf226eU, 0x3e3569c7be194d3cU,
  0x3d9ef052bd7d1611U, 0x3e09d9afbcab5c18U, 0xbd105fb53d7ccbeaU, 0x3dc0458f3d52fcd0U,
  0x3dd3561bbd0b1248U, 0x3cc98ed6bdf16935U, 0xbdbf1e093c7f6037U, 0x3c8d96f33e0fb87eU,
  0x3b80d0fbbd3d5c35U, 0x394a46793d5d458bU, 0x3d7f1e943e0462baU, 0xbdeb55f7bd49208fU,
  0x3e0a1693bdf762deU, 0xbe1ccd23bc919692U, 0xbdc8d9aabd4fc332U, 0x3ca70d68bcfad23dU,
  0xbdb2e0a23e0a192aU, 0x3e0e2d843d389c52U, 0xbdd3acd0bdb3095dU, 0x3da56cc93d91a58cU,
  0x3dfa267fbe2284e6U, 0xbcf9c90abd8f86ffU, 0xbe0ffadc3d2a00ccU, 0xbd71e376be09586cU,
  0x3d1981b4be055d1bU, 0xbd8b24bf3d7edc28U, 0x3d5db678bdbf5bceU, 0x3d96e40b3dc0070bU,
  0x3dfe591ebdb9c8edU, 0xbda328e23e363135U, 0xbce347613deed285U, 0x3c9f0227be2727ecU,
  0x3b63c75d3d96f0feU, 0x3d4ed9e53d899322U, 0x3dfacad5bda0728cU, 0x3df9316e3e02495cU,
  0xbcfe1e6a3ce1de26U, 0xbdebf8f83d63d5c0U, 0xbd219d6a3d94395aU, 0xbc6af7903d9a9c3aU,
  0xbe10072abdefebaeU, 0xbdc4d4d43d6b7904U, 0xbdad1281be0b2322U, 0xbcf98008be1735deU,
  0x3dc011ec3dbc73e8U, 0x3cfbf7e0bd58c578U, 0xbd9f7d43bd99f748U, 0x3dab8ccb3dfaae7dU,
  0x3dce309cbbcfdc3dU, 0x3e417ac63e1e900fU, 0xbd9169bc3d442050U, 0x3d4cb421bd3fe565U,
  0xbd9351acbd1e3daeU, 0x3ce3caa0be014b90U, 0xbdcda1293cfb2038U, 0x3d85acae3cae6d40U,
  0x3ca68b90bdb7bebeU, 0x3e057e5bbd10079cU, 0x3d33b7a73df1cfabU, 0x3ec36b1d3e41fbc6U,
  0x3ccd0b523cd4754fU, 0xbe0e1501be2fdfe3U, 0x3e0fa2ddbdd8bf49U, 0x3e15396b3d7c7243U,
  0xbdeaf294be0305a2U, 0xbe315c1f3cb02dafU, 0xbd6e5e953e033937U, 0xbd643ea93d9c4908U,
  0x3e0272243d94b13cU, 0x3e8a1bdc3e6073a5U, 0xbddd923b3da420feU, 0xbdcdcb38bdd5f8e0U,
  0x3e1137523e201560U, 0xbe219ea0bdd4df55U, 0xbe0fa3aa3ca46159U, 0x3da900c53da1cbcbU,
  0xbdfb0898bd51e567U, 0x3dabbfb8bba8c07eU, 0x3cdc79ad3d253565U, 0x3e9626f5bd058756U,
  0x3d820cd43db3a560U, 0xbc416024bcc5a39aU, 0xbe1823fb3e0bdf43U, 0xbd8c05143d477dd9U,
  0xbde072593c8e697dU, 0xbbd66f5d3d1cd1cbU, 0x3cc661d6be54e940U, 0xbb6b89193d8c426fU,
  0x3c8c42803d634bbdU, 0x3e41a2e13b6253d3U, 0xbdc303c03e3ffd25U, 0xbdaa755abd254d23U,
  0x3d6e2dd03c808038U, 0xbde13eafbbda7b5dU, 0x3d09cc77be32e037U, 0x3da7b4693c90e10bU,
  0x3d80bbd83d94b53cU, 0x3dd1cfe53ddc7e09U, 0xbdae6693be0eba15U, 0xbe029081bca66abcU,
  0xbd9631cabdce4bc0U, 0x3dc6450c3d7f2f14U, 0x3d99801abdbc3aa5U, 0x3defbfddbc9f84fdU,
  0x3dfc9be9be44dc3cU, 0x3dd759573c796043U, 0xbd82e3783db41230U, 0xbdfd87d0be0046d4U,
  0x3da24346bdfb0ae7U, 0xbcb91508bdc7d922U, 0x3e171a58bd6ac6daU, 0xbaf88100bd2f6600U,
  0x3d44d5b1bd8c40a7U, 0x3d83ac8f3d8de8c3U, 0x3de14ce7bde3a22cU, 0x3d9cb33abd610c1aU,
  0xbdcd64cdbe042e19U, 0xbc66973d3c002ae5U, 0xbdaedd033e0d2e91U, 0x3d9c36ecbdd2c931U,
  0x3e09dac2bdbd3ee8U, 0xbd8e5ac3bd28a3d7U, 0xbd6a07473cff3635U, 0xbe4d5a1b3d2c71a0U,
  0x3c0903d53e00bdd1U, 0xbe001fb9be01573eU, 0x3e09454cbe7caa9aU, 0x3e174313bd5402fbU,
  0x3d62f2143db89260U, 0x3e744e62bc12ff63U, 0x3cd2dff83d8ad499U, 0xbb0ec182bdeb6696U,
  0xbd7495cc3df17b4dU, 0x3dd2096ebd8cad87U, 0x3d6cf2b3bd3531a1U, 0xbda4c667bdbae798U,
  0xbe10f81bbd188edfU, 0x3d3c76f6bc2898bcU, 0xbc43521abd80f706U, 0x3c528eb53da58569U,
  0xbd78b0ef3e27ed68U, 0x3d98eaf0bd598c58U, 0x3e0e71d6be156568U, 0x3d8a5e0ebda0fd59U,
  0x3c95776cbc548ecbU, 0xbbbd2b59bdf47362U, 0x3d8cc942bd3b66d1U, 0x3dcc0ee1bd9877c7U,
  0x3d1249e03d54e637U, 0x3e8e20433d8bd96eU, 0x3d2b2197bd53610fU, 0xbd8ab732bdb7a5bdU,
  0xbd9f092b3ded5787U, 0x3db6bf77bdacd020U, 0xbe01190fbd8472abU, 0x3d1b2378bce3be18U,
  0x3e17abdabd6c4571U, 0x3dee6c4c3d4c3bbaU, 0xbd6b5dee3dc12260U, 0x3c9576eb3e813fc9U,
  0xbca84dccbd65439cU, 0x3db627023d878c47U, 0x3d5a9dd93d4516d3U, 0xb938e548bded2da2U,
  0x3e9618fdbe659bd1U, 0xbceee8c93e324523U, 0x3de2c991bcab9366U, 0x3dd912ea3ca9085fU,
  0xbe29fc63bcb5ac83U, 0xbcc384d13e97382dU, 0x3dfc38e63dee1ef8U, 0x3e0043c93e09c637U,
  0x3e17d6d7bd7e2205U, 0x3d26770abd60b97dU, 0x3d497f84be1962d9U, 0x3caa6380be031f46U,
  0xbe17434a3e0ce0e4U, 0xbdf0777bbd6bbb84U, 0x3dcbd72f3e0561e9U, 0xbdd5936a3d8d2478U,
  0x3ddfc4623dba1515U, 0x39a68e513de5a934U, 0xbdd44b30bd332b07U, 0x3cb60b51be190fafU,
  0xbe125fffbcd932c5U, 0x3e0b928abcedef11U, 0x3e1018903dd530c9U, 0xbc7188a0bdde49a6U,
  0xbbe2c9e03d258bf0U, 0x3d08f7cc3db114bcU, 0x3ccbf448be07956bU, 0xbdbf798fbe07870cU,
  0x3de8f10dbd1b6813U, 0x3ceaeffcbdd86c63U, 0xbd171316be0fdf34U, 0xbd95d68ebd55ff64U,
  0x3de62e993c61da70U, 0x3d9f59e8bdb480a5U, 0xbdea3b073d9186e0U, 0xbe1fb3fabcf4e60cU,
  0x3d80b9263d08db47U, 0x3e06f905bd8399dcU, 0xbc5366603d89b5beU, 0xbcf671ad3dd62334U,
  0xbe3c78f5bdfeeabdU, 0x3e173bdbbb528958U, 0xbd791e3a3e0f455fU, 0x3e39fbedbdd21fffU,
  0xbd1847503dc6d76dU, 0x3eda3f5d3e3e5f2dU, 0x3dafb6b53d90f885U, 0xbdb95312be1895ddU,
  0x3cf17170bd9966f3U, 0xbdb105e33c22c9d0U, 0xb92a7800bd7d4d2eU, 0xb988a600bdeb1ec9U,
  0x3cd98e783d29cb4cU, 0xbd9457f73d9e0429U, 0x3d857481be017049U, 0x3ceba7fd3cf18fe2U,
  0xbe0fcf673d078a48U, 0x3da053ffbdc31550U, 0x3d230b873d1e2ed5U, 0x3e03331cbd619107U,
  0xbdeecc9bbc821be5U, 0x3d01ab7cbde92f95U, 0x3df00b703bc92519U, 0xbe35dfdebcd9502dU,
  0x3db763973cf84945U, 0xbdb81d16bcfe18bcU, 0x3d83b1c33dbaa06cU, 0xbdf0b9b83d9a9824U,
  0xbd1027dc3e1b1753U, 0xbdac45e7bc0b7fceU, 0x3df804b03d810e4bU, 0x3dc0a8b53bdd302aU,
  0xbd23ca513d806d5dU, 0xbddc656dbba61540U, 0x3d3fccf43c1b81b0U, 0xbda5e6af3c201770U,
  0xbd2acb70be0b3ca8U, 0xbdf0530c3da04808U, 0xbe1282d33d96c1ecU, 0xbd777850bd9f1929U,
  0x3df67f5c3da7648eU, 0xbde754dfbdb49a69U, 0xbd355bc2bdb10f2aU, 0xbdabe144bde858d8U,
  0xbdef4c6c3cdfd688U, 0x3d5bc06cbde79e20U, 0x3b7550c0bdef2f28U, 0x3abf78803e0d2d60U,
  0x3de0bd3cbe0ce4afU, 0xbe00c84f3dc85aa8U, 0xbdd06a9c3de88164U, 0xbd05a040bdf718d0U,
  0xbdec46acbdbcea7fU, 0x3df2a041bd5e14b0U, 0xbd589e643dfe5ae3U, 0xbe68ef0a3d215efaU,
  0x3d736586bd8bc8fcU, 0x3b5031683c9bd6e2U, 0xbd0899d73da9e446U, 0x3d03cbef3db74781U,
  0xbd5c223d3eaa1e34U, 0xbb0c194f3d98a315U, 0xbddea3483c5da4beU, 0xbe03045c3c8edf97U,
  0x3d489b61bd694bbdU, 0xbd03ab263e95395cU, 0xbc43c082bdfe3c31U, 0x3d9482353d90f782U,
  0xbd31698e3de71a6cU, 0xbd5ea7dcbe17d297U, 0xbdc1f4b93db47a44U, 0xbe1623f43df23660U,
  0xbde9bbaabd838887U, 0x3c0fa770be11fc36U, 0xbc35f9e0bdf8a9c2U, 0x3cc77ff83db1160eU,
  0xbd9bea043da145deU, 0x3bb412a0be115254U, 0xbc3dbd5a3c95c777U, 0x3dcda3d8bd8c6d80U,
  0x3e6b650abd7ada44U, 0xbdbacea33d8cc874U, 0x3dd341d13cd13960U, 0xbda44c46be33aaacU,
  0x3d23add4be106adcU, 0x3d9054763e0f64faU, 0xbdcbc6923d061c2fU, 0x3d8216e83c346c2bU,
  0xbce2a61d3de62062U, 0x3d6c1080bde26e1fU, 0x3dea33ddbe3106aaU, 0xbd66d2b7bdf6ac86U,
  0x3e0171d23dad4fe4U, 0xbdff682fbdb01b27U, 0x3d1223173c7caf89U, 0x3e033b66be0ed5caU,
  0x3c5b8223be188cacU, 0x3e0d4044bca71492U, 0xbc8f1998bcb74c28U, 0x3d70538cbe187bacU,
  0xba836d80bcbba188U, 0x3c66cb50bd9b0707U, 0x3daa850ebe15d7eeU, 0x3db689ec3da37f6fU,
  0xbde34f6bbde3e599U, 0x3e18d6723e8cbe02U, 0xbdbddc573cfff68eU, 0x3d9d03f83c266614U,
  0x3db98bc93e18ddd5U, 0x3d20daf9be145dfdU, 0x3d213226bdf39c3bU, 0x3e15fbad3dd77d57U,
  0xbdbab4443ddfd7d0U, 0x3c0575ccbdaefef0U, 0xbd7fae383bba76dcU, 0x3e97fee3bdd4db7eU,
  0x3d413e07bcc87ea9U, 0x3da3693d3db62a8aU, 0xbe18d1c23c1c7056U, 0xbd14b8723d82540bU,
  0x3c5f6a00bcf8553eU, 0x3dc3538d3bb53dfcU, 0xbdb834bbbe2dc701U, 0xbd58162a3d659147U,
  0x3d7940ecbc72cef0U, 0xbdf1f2ef3cdee7d1U, 0xbdb938bbbdf08978U, 0xbcceb1683d119fc2U,
  0x3e0daa56bc453d53U, 0xbdffef613decdff4U, 0xbc97f836bcd8bd07U, 0x3cf6666fbdb57c2dU,
  0x3e1d51a1be0a86fcU, 0xbda5d2383dc6f0a6U, 0x3de2d391bddac20aU, 0x3dbe1b99bda2cf56U,
  0x3e126071be058786U, 0x3dc875e83d963f60U, 0x3bb691be3c9d556aU, 0x3bc70f7fbd956e6fU,
  0x3ec782583e8c851eU, 0xbd6c793a3db19b1eU, 0x3d5b5232bc83221dU, 0xbde91813bcfeab45U,
  0x3db45144bd283b70U, 0xbd2bda0dbdace003U, 0x3c82ee693e1b68dcU, 0xbe1375193da1baceU,
  0x3db601823dd00130U, 0x3c3a27543c93fafdU, 0xbe8bf8f83dd7c2b5U, 0xbdaec4923e3d10c2U,
  0x3d997971bd88e642U, 0x3d3ebbcd3c815e46U, 0xbdd152a9bcfc411cU, 0xbde70fd03dfab221U,
  0x3d1a96693aafe858U, 0x3dbf455a3d722821U, 0x3e0833b93d63b7f8U, 0xbc3f801ebe154b92U,
  0x396f1028bd7b2a07U, 0x3db6e5b5bdab54f5U, 0xbd4602e73c4f58b8U, 0x3dfeade8bc6803f7U,
  0xbdc873513da555e9U, 0x3dbe6cf73de56592U, 0x3ccfab10be3b3489U, 0x3def76e43d842728U,
  0xbdcd5c4c3d9ba1adU, 0x3def494d3cf2f484U, 0x3e3e291dbd065c5bU, 0x3b25daccbba6fd65U,
  0xbc789005bce9531cU, 0x3de86fb53deef8cdU, 0x3d9037523ddad2a1U, 0xbe88a4c63dad0a92U,
  0xbd1ded16bd4255ccU, 0x3e0d606b3dfdd9dbU, 0x3c86de28bdb9bfc8U, 0xbd902399bd78af20U,
  0x3d0d4050bcdc7c80U, 0x3d0b7004be0d3596U, 0xbd2f9b8abd287818U, 0x3d2b0171bd650d60U,
  0xba61c39f3cbac253U, 0xbd7a3858be000299U, 0x3dc6078dbe1e2d73U, 0x3d1d51a6bc48d17fU,
  0x3d8c517abd264a1aU, 0x3d038d30bd39e18eU, 0x3e0ef2d03dffd0adU, 0xbb1a767b3e0687ffU,
  0xbd32ffa2bdf0b6ceU, 0xbdda853b3d5e1d0cU, 0x3df93ac0bb9d6931U, 0xbe05d85f3e223083U,
  0xbdd81e1f3d83adbfU, 0x3d8dbf283ce4bb83U, 0xbd89a0af3df73f97U, 0xbd36ac46bda75e6dU,
  0xbd9628573ec77722U, 0xbdc870c33d1f60b7U, 0x3db88aeb3dc4119fU, 0x3d701cc2bbed94b5U,
  0x3dc70d7f3e1b131fU, 0xbde7d2143e404e4bU, 0x3d9394ae3d4a8506U, 0xbdab2cfabd7d5c8dU,
  0x3cce5058bd99af41U, 0x3e045bf6be1ec2aeU, 0xbd1e018dbb706155U, 0xbd9ef8013d0cc1baU,
  0x3d48ab58bd495a57U, 0xbdc8dca2bde50b21U, 0xbd74934e3bdfb1beU, 0xbe1aae263e239939U,
  0x3da7e2ebbdd9ffd0U, 0xbbd0e5443de351ccU, 0x3d0475f43de21708U, 0xbc281618bd129cabU,
  0xbd9602a53da70458U, 0x3ce5a546bdc9365eU, 0x3db830dfbd1c86b8U, 0xbdd6051e3c95d527U,
  0xbdd97542bd62342aU, 0xbdd05d843e075dd2U, 0xbcd98c103df12defU, 0x3c9b530bbe21a645U,
  0x3c538c72bdb24071U, 0xbd41692fbc3c3d52U, 0xbe076d963d45267eU, 0x3db5734ebd08e58aU,
  0x3e29b5c7be052194U, 0x3cae8cb13d9fbe92U, 0xbc8dab643e172e1dU, 0x3e57cd1c3e41bdf4U,
  0xbc7548ae3c8ddb45U, 0xbe0249603dc688c1U, 0x3cd27cd0bbf0d882U, 0x3b198422bc72dc98U,
  0x3e14a0c0be801967U, 0x3d50a1293e04270fU, 0x3bb12c733c139bb2U, 0x3d3efbb23d802479U,
  0x3c8166e83dae2fe6U, 0xbe1f28cb3d5e029fU, 0xbcab4dc63db50be4U, 0x3da3b1933ca406a1U,
  0xbd29e1cbbdb2802eU, 0x3df416b13d804e29U, 0xbce850f4bd257189U, 0xbca851d8bcc2d814U,
  0xbda5fb7bbbc12308U, 0xbcb510dabd1df9acU, 0x3d1ac1573d00b8f5U, 0xbe19c6e7bd20a158U,
  0xbdfb24413da94152U, 0x3cfa32ff3c3359a9U, 0x3c91e679be080df4U, 0x3e0c3cf03df8d1beU,
  0xbe294bb63dea57f1U, 0xbe08c262bbce4714U, 0x3e0f5eb4bce55ea8U, 0x3ddbbc75bce4111fU,
  0x3d91aa3dbde8c5e8U, 0xbc46d6a4bdf2deb1U, 0x3d46fa913e05071aU, 0xbd9296143c847c2eU,
  0xbe064a4fbe0dcdb0U, 0x3d8e9e20bcd4d9a8U, 0xbe1270583d95652aU, 0x3cd80a10bdcc82c0U,
  0xbe170aa2bdcbcf99U, 0xbd806e8c3d936866U, 0xbd22b263bb626b1dU, 0x3e93302e3e85ce26U,
  0xbdd93ab03c8ace71U, 0x3d3a57313dc4d6f2U, 0xbe0b794f3d6349beU, 0xbe27f3bc3d4bae5aU,
  0xbbfff0ed3dc08b36U, 0x3ddf22053e154fb3U, 0xbdf26388be4ba26aU, 0xbd69d5163e0e82a4U,
  0xbcdc0ea4bd622df6U, 0xbe11851fbdf0e41cU, 0xbd286612bd9e5fd9U, 0x3dbc96e2bdeb6f96U,
  0x3db13be4bc8f7a9cU, 0xba6cdd11bcaeb9dcU, 0x3e2500843ea1b3caU, 0x3d8650bcbe09d533U,
  0xbd85b20fbdc66e40U, 0x3dcadb8e3e012329U, 0xbae871d73e012c68U, 0x3e9b258cbe7d7167U,
  0xbdeda6fc3ba4525cU, 0xbde0193bbd85cba5U, 0x3dc6c430be1ea726U, 0xbd3f29f0bcc72023U,
  0xbc1c0b4f3dbcacadU, 0x3da2e60bbdb393b4U, 0xbdae84e4bcb7bcf3U, 0x3e1a6bb13dac2bc7U,
  0x3d18081b3da7c111U, 0x3e176bc7bea7189aU, 0xbcb721e2bda6e37aU, 0x3db18881bd53155aU,
  0x3daefa75bd94eb6dU, 0x3d0835343c8f5a57U, 0x3eb7911ebc67f5d8U, 0x3d9454403e2a4898U,
  0xbc937969bde4d5a4U, 0x3d979e16be076c67U, 0x3d8cfa9bbdde0db9U, 0xbe1d5b983dfe42c0U,
  0x3dcfc73c3ab4a06fU, 0xbde1a70c3d068e1dU, 0x3d913d0a3db24a37U, 0xbdbbaa82bd8d15ceU,
  0x3e8aba29bdd3fcc3U, 0x3daf2df5bdcd436dU, 0x3d7d7830bc29fbbbU, 0xbd827c583d663ef6U,
  0x3dc2a0e1be11b1c3U, 0xbba4a0023e4c65ecU, 0x3d6a8cbb3dfc3e70U, 0xbd80f1c4bda25b12U,
  0x3c0531ffbc96b159U, 0xbc4be03d3deab4d5U, 0xbe6257423d78bcc4U, 0x3da742153e119835U,
  0x3cefe8023dc20098U, 0x3da0696cbc3cd320U, 0xbe03e1ef3daf7274U, 0x3e262f7cbe9d25e3U,
  0x3e0ae41c3da1c4deU, 0x3c08980b3df1fe9cU, 0xbe082a343d15f124U, 0xbd2f3b213dc623fcU,
  0x3d4a210cbe001503U, 0xbe0ca5343dc494b5U, 0xbd5dbe44bd90cd47U, 0xbd18dd753b997e58U,
  0xbdc741d2bdcf7002U, 0x3d4733673de43d7cU, 0xbbfdcc913b3cdc75U, 0xbdf77848bcfe41e8U,
  0xbd11e6d03dd60f08U, 0xbdb73322be0100adU, 0x3daa8051bdff42cdU, 0x3d13df20bd48a2b1U,
  0x3d03979b3d79749eU, 0x3cffe8b0bdfdc632U, 0xbd4863b4bdb53db4U, 0x3dae5130bddf2c18U,
  0xbe089a29bdc52748U, 0x3c9f8e483c53f920U, 0xbdefd1483dc64404U, 0x3d414d51bda1ae0fU,
  0xbe41c1f73e081e15U, 0xbe0a79a93d863219U, 0x3d526349bbbe7204U, 0xbd728e5fbd5a7815U,
  0xbd8e70e0be4fa7beU, 0x3e2710ba3dd7b31bU, 0x3df0834fbde4224eU, 0xbdaa470ebc8cbc6eU,
  0x3da9180c3dc1b484U, 0x3d6ed3e4bda67b50U, 0x3cd91ad0bd96ddeaU, 0xbdb1fc4fbe087786U,
  0xbd53975abd999858U, 0x3dda20973dae8370U, 0xbde757423ccf4e7cU, 0xbe5e9196bd8e964eU,
  0x3d41fbe73d93cfbeU, 0x3db071ef3d79d98bU, 0xbbc621623d9185f5U, 0x3dcd6314bb22e957U,
  0x3da38d96bc3dc9eeU, 0xbd9bb9a3be38c0feU, 0xbc2f55f23d92e476U, 0xbdadfc413d273828U,
  0xbd0a6624bd26e24aU, 0xbdcc7f1c3d17814cU, 0x3c689b103acd2980U, 0xbe1964223c53b150U,
  0xbd93ba9ebd071c08U, 0xbddeb649bdca80e8U, 0x3dad86d1bd37844aU, 0x3d1578d33cc05afeU,
  0x3e1c29cd3e3b07e7U, 0xbdb0ae67bdeabc6bU, 0x3d34b28c3d137dd6U, 0xbde5c95d3d765c8dU,
  0x3d880be9bcb42b8dU, 0x3e085014be23bcc0U, 0xbde0547dbcf65814U, 0x3dab72113db4575bU,
  0xbe16888f3d94fd89U, 0x3dcdf1b8bd5d34cfU, 0xbcb5dd623c92c70cU, 0x3de1ee223dd157bcU,
  0xbc91546b3b0f43d6U, 0x3df7b8773eb28a17U, 0xbdcb6ba3bdbbba2fU, 0x3dc252ea3de224c1U,
  0xbd23c5f53c71fd6dU, 0x3dbb199eba39af80U, 0x3ea137e73dbbc1ceU, 0x3da96f083e29adf5U,
  0xbd58af7bbdea23fdU, 0x3dd0a0643d5a0d00U, 0xbdf8e558bdd6895aU, 0xbe12a97bbc783470U,
  0xbdd36617bdbc3f78U, 0xbe0ac2d3bd6d46eaU, 0x3dc2828a3d068210U, 0xbe0d8f663db3d2b2U,
  0xbe098cee3d82c82eU, 0xbdb9895cbdb92894U, 0xbe09a6c3bd65d30aU, 0x3e1f229cbd15a476U,
  0x3ca6314b3d621aedU, 0x3cb9a205bd884e84U, 0xbdad38a3bcc76403U, 0xbdf1e78c3d8143c4U,
  0xbd9a620c3dfb9520U, 0xbd2a8c52bd9b0419U, 0xbd4c9be4be062586U, 0xbce716043dcd497cU,
  0xbb5dd8003d26c0fcU, 0xbda49e75bdd23acbU, 0xbdd8a0bebde8c54dU, 0xbca4f059bd508f02U,
  0x3e0a9faabe3f8418U, 0x3e15da0f3e155a1fU, 0xbdd231eb3cd4beb0U, 0x3d63739ebd834da0U,
  0x3e298737bd0d47f3U, 0x3da6bd57bccf06fbU, 0x3e04b3553da8427aU, 0x3d3669bf3d5f2b9eU,
  0xbd5a2a6c3dd2a416U, 0x3e876f33be676170U, 0xbcd3c5cdbbed0c7aU, 0xbd177a753d954a4cU,
  0xbc864160bd894684U, 0x3e05c84e3dc6bca3U, 0xbdd72d93bd24a89aU, 0x3d1688debe0db325U,
  0x3dcbd829be390bf0U, 0xbd2a53773d7fc011U, 0x3de5c5efbdb7889eU, 0x3e8119dcbe63f071U,
  0xbde2cc983dce7b0cU, 0x3c391b65be093eb0U, 0xbd130001bdbf14a9U, 0xbd4f1b1d3d7d3b0eU,
  0x3c80f6733d8419c8U, 0x3d38ca443c97ea1fU, 0x3c6e78a73c0994d5U, 0x3d69ac3e3d839460U,
  0x3d80c84f3df4bc21U, 0x3dbccd1c3e376eceU, 0xbdb9c05c3de11502U, 0xbd9e7dfb3d6dc5f7U,
  0xbdf2fd62bde681cdU, 0xbc280aa03d16abf4U, 0xbe08e59fbe009532U, 0xbdc209e63e0e8f16U,
  0xbd17447a3cc5ea18U, 0x3dbd4866bd849f88U, 0x3d2071053d7b1c32U, 0x3d7ffb41bd769d82U,
  0xbd44931bbcb5bc8cU, 0xbd34037bbd5365f6U, 0x3ca54137bc504fb1U, 0x3b82bb853c3500d9U,
  0x3e753f1a3e638e94U, 0x3d856b6ebcbafe20U, 0x3d8bb360bda75f24U, 0x3d8a9b7ebdc15ed1U,
  0x3d55e76cbdd2e772U, 0xbdd195c43bfd89c0U, 0xbdaacbda3c16bbc0U, 0xbe00c93fbcfbc064U,
  0x3d4a8c0e3d1013adU, 0x3cb13725be2a89bbU, 0x3df24385bd4819b5U, 0x3cc3e7133cafb7f7U,
  0xbdad14403dabac5dU, 0x3cba7d393dc63eabU, 0xbe35044bbdec57b3U, 0x3e14bad23dd361dcU,
  0xbe164028bd6881e3U, 0x3e0907e0bdc7f84cU, 0x3d09a950bca7f8f8U, 0xbd48e1f0be0f62d9U,
  0xbd9b93f6be156df9U, 0x3e0f177cbd51cc4eU, 0x3d1c8b443ca44a50U, 0x3c6d2f80bde5d86bU,
  0x3df35a40bdf7695cU, 0xbdc52229bd9330d4U, 0x3de6f5663dc86fb9U, 0xbdc4f7e53d7251cfU,
  0x3cf768a0bdb83c00U, 0xbddcc0f2bcefbc88U, 0xbd402152be10bb42U, 0xbdbdfd143cbfc0b0U,
  0x3e1979da3cde82d0U, 0xbdd42f273d620a7cU, 0xbdd31eebbda9dc9aU, 0xbd069fdebdd8c22bU,
  0xbde52d403d832314U, 0x3d0d50d83da97cd2U, 0xbd926ca7bdfa1536U, 0x3e035e9cbdd667feU,
  0xbdb70b1e3d94ea7cU, 0xbc8b3578bdbad04cU, 0xbddecf22bc755300U, 0xbdfb41da3bc945b7U,
  0x3dc7f505bd28291cU, 0x3d6219003e46c1d0U, 0x3da4194bbd0977edU, 0xbd7b05c93dd5ad3bU,
  0x3cfdef61be25e686U, 0xbdac17553e09c8b4U, 0x3d5bff32bdd7aceeU, 0xbddda5dcbc575c7cU,
  0x3c9b34993e17c0d1U, 0x3e11a0e3bd461991U, 0xbd8a1f523c13e45fU, 0x3d953b5abd4df40bU,
  0xbdaac7bcbdbf1530U, 0x3d3e8cf1bc6af86aU, 0x3d6ed1e0bd13b6acU, 0xbb637b00bde99390U,
  0x3db4ec9abd9f94dcU, 0xbc313ec0be173566U, 0xbded840fbd8f0d34U, 0xbd5388243d3f9c68U,
  0xbe0e34913d99965aU, 0xbd94194a3d5b1bf8U, 0xbe0f3432bd05027aU, 0xbe08506b3d16a4c0U,
  0x3dc4313ebb0c8180U, 0x3d9f7f02bc85baf0U, 0xbdd18aacbe069c87U, 0xbd7814b2bd97ff32U,
  0x3bc2c4e0b91ac400U, 0xbe09f1e6be0b2194U, 0x3daa45a1bd80a66bU, 0x3cc16a593df8a7ffU,
  0xbda5ef893d8668f6U, 0xbdd577d1bdc53034U, 0xbd81e2b5bdf45134U, 0xbcdeeb68bc8fcf40U,
  0xbd8032dcbd59301aU, 0x3db90ab6bc93d260U, 0xbd6a05123c26b1c0U, 0xbdea6ab6bdc79e8bU,
  0x3c8ef638bc1db640U, 0xbce948a0bd9bacb9U, 0xbe1447b7bcad89f0U, 0xbd66f2803de3bb18U,
  0xbccba29dbb6ccbd6U, 0x3e0c42c8bc8c9388U, 0x3e6274083e0091cbU, 0x3d8cd3c93be3e530U,
  0xbd4c56cabe20604eU, 0xbcdc0aad3dd16ef5U, 0x3c060437be19f42fU, 0xbc74d90a3ddd7941U,
  0x3d7d084a3e11d09aU, 0xbe26040dbdbd9f63U, 0x3d9a0676bdf79bedU, 0xbc4a5790bda0d55eU,
  0xbe0460a23ddc40f0U, 0x3d3e02cbbd3bfb23U, 0xbe0c8179bc88e468U, 0x3cd7e5a13cdd27daU,
  0x3aea3a09bd8a991aU, 0x3e234b04be7bbf56U, 0x3d92bb81bd8c19c5U, 0x3d9be63b3da66809U,
  0xbd4739393dd1424aU, 0x3def23a7bb9457beU, 0x3c460355bd1b5a0bU, 0xbdc7bccf3e25d080U,
  0x3deffa91bd79b823U, 0xbdc7e5a93be551e6U, 0x3e40130bbdf5829fU, 0x3eabd2313ec95445U,
  0xbcbd24313da56b83U, 0x3c9e6a40be14aacaU, 0x3de6281dbe52ae6dU, 0x3d034b643c66b8c4U,
  0xbd386cfd3d8610e4U, 0xbe15f6fe3e02b100U, 0x3c866a7b3db17cf9U, 0xbdca7501bcae20bbU,
  0xbd8da3e63dffdec6U, 0x3def24b5be13cd4dU, 0xbc9582733e158ca8U, 0x3dd053ecbcd277c1U,
  0x3d8b0decbdfcbddcU, 0xbd87d3393da0ba1fU, 0x3d0fb86dbbe66df5U, 0xbc5a4163bd7507b8U,
  0x3dfe622fbba46435U, 0x3de4c5bbbe3aef8fU, 0x3df849a73e13fda9U, 0xbc3e183c3e067d70U,
  0xbd967be9be04b702U, 0xbdb064aebdc48137U, 0x3ddf14febcb426bbU, 0xbce898babca0d212U,
  0x3ddcc9a33e6f7e75U, 0x3dad9260bdf36772U, 0x3c9da587bd9bcc70U, 0xbd67044f3d4923afU,
  0x3ccb0302bce95c9eU, 0xbe211eabbd554d1fU, 0x3d404555be19e7b0U, 0x3dc92e343dfa6db0U,
  0xbce795ecbd4be447U, 0xbe180c46bd79503fU, 0xbde663293dbb3a24U, 0x3cfd08523d513816U,
  0x3dd52ec4be22547fU, 0x3db41c833e1221fcU, 0xbda32986bca543cbU, 0xbe87fdb03e4e0bdaU,
  0xbe0806a1bad3d2f7U, 0x3dca9f383d0b44c4U, 0xbe175dbebdd0b168U, 0xbc83e878bdd47734U,
  0x3db4dcc6bd2ddf7aU, 0xbcf256ec3d1a0828U, 0x3d1158543cbbc1c0U, 0xbe0c7327bdaa3857U,
  0xbe2adfc53d5a5444U, 0xbcd0e0593d2a600bU, 0x3d93edfebd0a2216U, 0x3da1ce73bdc3c821U,
  0xbcb46a88bddede26U, 0x3e199eeabdd1126dU, 0xbe0afc95bde05e0cU, 0x3c26a1e0bdfd7604U,
  0xbdda6626bd92bec5U, 0xbe334dca3d9a70cfU, 0xbd968b4abc8294afU, 0xbdaf197bbd33fc37U,
  0x3d7c21983da87690U, 0x3dc43f44be572b36U, 0xbc464ff53deabf3cU, 0xbdfd2a9bbe14efb0U,
  0xbdf7f4bbbdc04dd2U, 0xbdebdd01bd2896c3U, 0x3dde1fdd3e05ca72U, 0x3df422fa3da1ef54U,
  0xbcdef6c63dd35a67U, 0xbde8f6f93ea04c81U, 0x3d853bc53dcf0b1bU, 0xbc31c567bbc567bdU,
  0xbbc5ab20be0ee17bU, 0x3c5181203defb90cU, 0xbdca11d23c1e3380U, 0x3d8fb144be0c9e54U,
  0xbde97d6ebd1c00caU, 0x3d2f3d07bd5480adU, 0x3d6e25ea3de5a359U, 0x3e00719d3cfe6857U,
  0xbd000adb3dd878bcU, 0xbe06d9b7bdc9d071U, 0xbb4e4d6dbcdae35bU, 0x3d0909803c44dcc3U,
  0x3de4a07c3cb552dbU, 0x3d1154683d74eb0eU, 0xbdc237853d04128dU, 0xbdb73eee3c9e2410U,
  0x3dd444d5bd82a559U, 0x3eac96c33c655f7cU, 0x3d3b66e8bc1e44faU, 0xba93731bbcf3abacU,
  0x3c338cd03d37f698U, 0xbd8d2ffcbc341210U, 0xbd309350be0d721fU, 0xbc8f24b83d280670U,
  0xbe180e39bd3f0594U, 0xbcc06bee3da688d5U, 0x3d9389f43cd1d354U, 0x3dc68c14bdbc887aU,
  0xbd56073e3d98bbe9U, 0xbdae8c58bd866756U, 0xba4665293cb812d0U, 0xbe2dffb3bce4b73dU,
  0x3e11f3d33d6dbb19U, 0x3e12fa68b840b446U, 0xbdc3e1a6be1110cbU, 0x3cb836f93e21e22eU,
  0x3d2ef261bd1dc085U, 0xbd9c858bbd118b4cU, 0x3e292a193ca05b17U, 0xbd9a0835bd5dbfacU,
  0xbb2886403ca253c8U, 0xbd075b00bd8b2086U, 0xbe087c89bc3840e0U, 0xbd72ac58bdfcd430U,
  0x3d571984bdc4721eU, 0xbd189d32bdf18241U, 0xbb53e2573ce31916U, 0xbe0522ecbe0b918dU,
  0x3d50a6983dd34968U, 0x3da40f713da599e8U, 0xbd8b3aec3d9d315cU, 0xbd6a3f29bd5b347aU,
  0xbd1bf70a3cfbe3f0U, 0xbdf43e2cbda4a1b1U, 0x3deec5493c7f26c0U, 0x3c4314e23d111ab5U,
  0x3e099c103cda7222U, 0xbd837d7c3d33b189U, 0xbe1c8b303dcf8c93U, 0xbdd65a74bd5cdbfdU,
  0x3d90630d3d71e040U, 0xbdafdc933e260e6bU, 0x3edc8bd1be023b46U, 0xbdb628dd3e3fa7e3U,
  0xbdf591683cdedd6bU, 0xbdb7bf61bd69f56aU, 0x3d938bd4bdec35e4U, 0xbded3c103d313cfcU,
  0xbdf235acbd2fad56U, 0xbe129b75bd12027eU, 0xbe0ace2bbd42caa7U, 0x3e061d583cba811aU,
  0x3e6adfeb3de1b9feU, 0xbc91976c3dbc852aU, 0xbdde63febd213a9fU, 0x3e0f51e93d81adf1U,
  0xbded8bdbbd9746edU, 0x3da5d5f53de1ee0aU, 0xbdcd1c3c3dd5dc4dU, 0xbdf73e263d5833a3U,
  0xbd3bcd8d3da42a9aU, 0xbd8944b33cc79718U, 0xbb25590dbe04d8c7U, 0xbdf12c783d23bc68U,
  0x3e1b84093ce03f11U, 0x3c03e1c0bc501e40U, 0xbd6d924e3d3c1d64U, 0xbd9bd2cbbdce1f43U,
  0xbe1980833d416a3cU, 0xbdb0ae843e080cdcU, 0xbd820fd1bd645b2fU, 0x3dfaf4b63d919306U,
  0x3e271687bd7fd2d1U, 0x3d8276203e1b51fdU, 0xbd3b220fbd2968a7U, 0xbd7dd7b7bd927f99U,
  0xbe3077823de84b1dU, 0x3d4417e43dc34024U, 0xbded4f5bbd1147a6U, 0x3b077345bcd6b053U,
  0xbdf7b3c53d609642U, 0x3d0aeacb3c92f4bfU, 0x3ea3351bbe1c6306U, 0x3d3df5953d654914U,
  0xbd4ec5a93dc03d08U, 0x3dce87533dba4208U, 0xbdf198543d88200aU, 0xbd8ecefebe174eafU,
  0x3da087ffbb479b34U, 0xbe0f25403e1139a1U, 0x3e218ead3c0e332bU, 0x3d46bf31bdf962fdU,
  0x3d717054bc63092fU, 0xbcf21b0dbe0c2428U, 0x3d37fa0bbe178040U, 0x3d6b7dc03da557b2U,
  0x3da03922bdcb674eU, 0x3b69bafa3b4a8bc8U, 0x3d42327cbe302a12U, 0xbdd6b7cebd7b3bd3U,
  0xbc7ff7c0bc3c8a0aU, 0xbd8372a9bc821eeeU, 0x3c1e3f78bbb8848aU, 0xbca9840c00000000U,
  0x3b995f7dbcf439c4U, 0x0U, 0x3b9368ab3c58c347U, 0x3c05327800000000U,
  0xbd1882f33c8ab3c5U, 0x3bcaad2d3c3bd297U, 0x3a8274eabc37a860U, 0xbc8b03b93b337332U,
  0xbd1eca61bab9521fU, 0xbd06460cbd0b8a27U, 0x3c0b539c3c839d4aU, 0xbe0b5a8bbd80aae9U,
  0xbb240706bc8f2cfeU, 0xbbeebb4abc9e7412U, 0x3b4682eb3c7e30e0U, 0x3dba552c39aac683U,
  0xbda0c841baa49333U, 0x0U, 0xbc52144eU, 0xbc8da6fcU,
  0x3c181223bbecd3e1U, 0x3c1f338100000000U, 0x3c258b9a3c3c4086U, 0x3b40442ebe07fc8aU,
  0xbd3b8bbd00000000U, 0x3c25e93f3b8ba9e8U, 0xbc53daa9bbb83fc5U, 0x3b529a1700000000U,
  0xb936c28aU, 0xbc144aeb00000000U, 0xbe0a267500000000U, 0x3d20ce3fba193325U,
  0xbc8c8b753c86a633U, 0xbc85a5f8bc1c511aU, 0xbcc837343bc3e683U, 0xbc1616e6U,
  0xb9e03babbd654968U, 0x3d172ef43ba6c02bU, 0x3c65e01fbbde1d1bU, 0xbcd7ab5dbbe43909U,
  0xbbb9ac0abbf651cbU, 0x3b58558cbdb3c1e8U, 0xbc203447bc1e4f3fU, 0x3c7b4167U,
  0xbcafcff6bb9ffabeU, 0x3c01d1973b841c3aU, 0xbba3b5f600000000U, 0xbd4a146a3d0571baU,
  0xbdcdf890U, 0x0U, 0x3d5dab9500000000U, 0xbc626d55bb33aa1bU,
  0x0U, 0xbb0173953c7bb2afU, 0xbc91e866bc651331U, 0x3bd343eb00000000U,
  0xbd7c778abbbcdb83U, 0xbbfc99cbbc564de0U, 0xbba1bf6d3c45ee21U, 0x3b6d91ca3cf3900bU,
  0xbcedc16d3d32705cU, 0x3b9a97003c5d6722U, 0xbc2e52debb7a05a1U, 0xbb93a05800000000U,
  0x3d3d2aaebcb19c85U, 0xbbfee4bcbd2c472cU, 0xbcbbbd8abc2878abU, 0xbc5fcd0b3c40e23bU,
  0xbbe26d7fbc695877U, 0xbbd2cd0ebd85163cU, 0xbc6a438abb6a211fU, 0x3bbe08d7bd1faf08U,
  0x3c3b3a9b00000000U, 0x3c3f15d5U, 0xbd19b5083c1f528eU, 0x3d0c7de3bc541b38U,
  0xbaf93de1be294030U, 0xbc71e7adbd6b890cU, 0xbd58b60d3ba7f18eU, 0xbbe03529bc161554U,
  0x3c8a4645U, 0x3cdd1a45bc269cd6U, 0x3d21892800000000U, 0x3d6ee2eeU,
  0xbd1185943d18ed42U, 0x3ad78dd8bd23b60eU, 0xbd8ef8a3U, 0xbb584e4900000000U,
  0x3d0e5e2400000000U, 0x3d6e1d4ebc08e649U, 0xbd4be312bd0f2bdfU, 0xba1f9d99bc0f6e3eU,
  0xbbff8b6e00000000U, 0x3c109508U, 0xbb91c3c3bbfa1e14U, 0x3afcdeb200000000U,
  0x0U, 0x3b486b3a00000000U, 0x3c901e8e3c3c7e95U, 0x0U,
  0xbb7b298100000000U, 0x0U, 0xba54d766bd9e2ea0U, 0x3de83fa3bbb83f8eU,
  0x3bf998b53c4c361eU, 0xbc97e25a3bbe927fU, 0xbc99815ebc8c063cU, 0xbdbf04c13c0d3d42U,
  0xbc184c44bc56ee2bU, 0x3ca09d5400000000U, 0x3cc1094100000000U, 0xbc147e0b3cc0ce14U,
  0x3cecb38500000000U, 0x3bd3873cbcc3f3f6U, 0x3cb52f6a00000000U, 0xbce6c13b3c97fdf8U,
  0xbcc3d7a200000000U, 0xbc54d34abc1b945bU, 0xbb8f85beU, 0x3acc768cbc7d5b5fU,
  0xbc917f62U, 0x3c18f3f13d63752bU, 0x3c36601bbd971741U, 0xbd117e3f3c318001U,
  0x3f1feb47c01aa3b2U, 0x3fd626983f5bc90aU, 0xbffbec4c3f947c7fU, 0xbf9a0d45bff0f2b9U,
  0xc01bc8ea4002cd04U, 0x3e94aa453ff5a227U, 0xbfa366313eafd213U, 0x3f7ec3e63fd095cfU,
  0xbf37f2fb3f2155f5U, 0x3fc1f210bfe78b9dU, 0xc0152f8ac00a1de2U, 0x3fad74adc06b8e2eU,
  0xbf1e5545c03f7c66U, 0x3f5e8d8ebfb41e07U, 0xbb8deaf0bf3bf573U, 0xbe3c5ac6402375baU,
  0xbe5f9c49bed2f083U, 0xc09406f8c0023d9cU, 0xbfc9ee3c3fcf5a61U, 0x4010c4a5bfe889d9U,
  0x4082ac18c092057cU, 0x4082afbd4064297fU, 0x3efd9dabc01e966cU, 0x401592a1beca510dU,
  0x3fa941d73fdd634bU, 0xc003e7be403b55feU, 0xbf981b87be4f4f7dU, 0x3fa962c03fd60a6dU,
  0x3fc691b9be1c32b8U, 0xbd3ed494bff93a07U, 0x3f73afedbf9d347fU, 0xc02ee6433f8d729aU,
  0xbe3863964029092fU, 0xbf5bc19abce69cebU, 0xc0a5ad84bfbc8443U, 0xbfcad7f8bee0b8b0U,
  0xbf4958883f87610fU, 0xc01414bb400fa33cU, 0x402ec3fe409409a9U, 0xbfabe59b3f723b66U,
  0x3e7acc22bfacb1d2U, 0x4022aeaebf509d5cU, 0xbfdc238cbeaf3c9dU, 0x3fac118240786f5cU,
  0x3f1cd9fa40376427U, 0xbed9043e3fbdd9b1U, 0xbec1d33cc01b04beU, 0x4006a040bfb7185eU,
  0x400228573fe9df20U, 0xc0ef66484015f4e5U, 0x3f71a8373d89042eU, 0xbcb639643fb3db43U,
  0x3f8cb2573fde81beU, 0xbfd26a5a3f6868f4U, 0xbf8c403f3ee25036U, 0xbdd1a022c0852034U,
  0x3fdde1b63f6a8b3eU, 0x402ec18b3f3668f0U, 0x405b90973fea7fd7U, 0xc09b52334090e2f9U,
  0xbff749e03f47fd78U, 0xc040cc283f964637U, 0x3fcb1b73bdb81ea3U, 0x3f198a8cc0c0e3c0U,
  0xc04fdf2e3f51bcacU, 0x3fedba58bff03630U, 0xbfa513a540382ef1U, 0x401530414083e914U,
  0xc013ab193e85218dU, 0x3fa492d2c0f0fb66U, 0xc0f2fbbabf8763f3U, 0x3e52488cbffbf02aU,
  0xc03219a1bfc40004U, 0x3e3e333140310945U, 0x40129339befba49aU, 0xbfbff031becd927dU,
  0xc068a16b3f961ec1U, 0xbfe0bcb2beb8142aU, 0x3ffee117bfe2ecbcU, 0x404847b6bff76d92U,
  0x3feb27bd4039a9d6U, 0x3f5c66ca3e36b732U, 0x403253513ebf8187U, 0x3e80b1f33feeaa69U,
  0x401646f6402b2302U, 0xc00e50c8c09898cbU, 0xbf5715073fbad4d5U, 0x3fa4267cbfb4eaf9U,
  0x3f1d18dbbf034538U, 0xc006ca6ac02193eaU, 0x3ed8d6cf3f1ad6c7U, 0xc0342aa53dc9faaeU,
  0xc057dc4c40723411U, 0x40b5d05dbf9edd44U, 0x408d86f0403ee6aaU, 0x3f82be483ff332c8U,
  0x401e14b2c083c0faU, 0x40902a32bf848604U, 0xc037080fbfe3374cU, 0xc008228bc002a6fbU,
  0xc041c2dfc00fae27U, 0xc00ba47e40a33a1aU, 0x3fb3b868c009cf22U, 0x3fe1f04ac07c824aU,
  0x3f0e3a743f335bcdU, 0xbfdf4cc93ffba870U, 0x403f4a22c005f39bU, 0xbe193a113f9abd0aU,
  0xc0ad0ed8bea199ceU, 0x3f816fc4bf5848d3U, 0x3e5ad8babe435f09U, 0xbe83bfcabf2dddadU,
  0xc05df5bc3f049266U, 0x3f84b943bec80515U, 0x3fac4388bdf9b161U, 0xc00ad0af3fee8ed4U,
  0xbea4fa6240a7b929U, 0xc020cee83fed8d7cU, 0x3d9c14c3c0358e8dU, 0x3f4ff7cabf28d343U,
  0xbf9841bb40326d9fU, 0xc04f41a3bd24cc0cU, 0x3fdc34ba408182b5U, 0xbfcf90c8bc03fea6U,
  0x3feaba64403d3f4aU, 0x3f2e4eb4402a37d2U, 0x3f8688213fa6c68eU, 0xbf2ff5afbfd41175U,
  0x3f8a3e6abfb74bffU, 0xbe0a8345c012b69dU, 0x3f4d64f73ed706dfU, 0x3ebbf1c93ff619d3U,
  0xbec31c08400161d3U, 0xbf09c7fdbfb53f87U, 0xbfc05e85bfca828cU, 0xbd96f913bf6dc0a5U,
  0xbfa92008401071b3U, 0x3ece1c183fc6534fU, 0xc066ce0a3f1dbccdU, 0x3f8375273fbde040U,
  0x3feb049cbec9ab1fU, 0xbf8b60923fc5a0ffU, 0xc079e98fbf3f9885U, 0xc0c0969b3f8f023eU,
  0xbf2e97bf3f064fc5U, 0x40a41f6ebf8ef5a6U, 0x3dca92dec00a780cU, 0x3ff3f44dc088f2dbU,
  0xc08c7617bfc3c1f7U, 0xbf1615f7c03d5de7U, 0xc012ebfe3f688df0U, 0xc03471403fde6c1aU,
  0x3d5b19f93fa1ec46U, 0xc006bbbe405cbc91U, 0x4007b7c6bf915f22U, 0xbecc4e2a3f249e48U,
  0x3cb48486c08fe67aU, 0xbd8338a1bfae8871U, 0x3f0bb0c7bfeb5a90U, 0xbf8a923e3e804c31U,
  0x4072c80cc0165fceU, 0xc020eb3040646013U, 0xc0a4fbca3eda2ec5U, 0xc098e29e407229e5U,
  0xc037185240933f18U, 0xbeb877523f7089a6U, 0xbdef36653f8f9909U, 0x3fb3868d4005eb8eU,
  0xbfa651703f84960eU, 0xc00099efc0a91007U, 0xc00ca4203f016fc4U, 0xbfbcb0253fbac3a8U,
  0xbfc09fc74032673aU, 0xbfebf6d74027d84eU, 0x3f7fbe3cc02d4fc8U, 0x3f927cc340395dddU,
  0x3f552757befdb994U, 0xc0adba8bbf1476a6U, 0x3d6516a940002889U, 0xc00e232b3f7f922aU,
  0xc0962f14bfdd15fbU, 0x400ed5113f3715f6U, 0x406c45f5403b3291U, 0x3f797178c033ec6bU,
  0x406b7b2fc0256f4cU, 0x3f97196b4002accfU, 0xc0600ddb3ebd724dU, 0x3f9f4e743fda2eb1U,
  0x400832fe3f048e17U, 0x3fb2340fbd2831feU, 0x3eac6ce5bdb1ac81U, 0xbfd15369c0b3ce50U,
  0xbfcff54d3f5587cbU, 0x3fcf909fbffc282fU, 0x3f07d10cbe78dbfcU, 0xbffec687402b42e4U,
  0xbf06c42cc0583474U, 0x3faaa58f3f6d7098U, 0x3ffc79cb3ffd0b48U, 0x3e196afc3ea3de93U,
  0x3f2a71ca3f420123U, 0x400f1a3abfcedf50U, 0x400e144140222deaU, 0xbf89da2bbf24d775U,
  0x3ea9d32a3f40becaU, 0x3f169115bfddf373U, 0x400649bec009466aU, 0x3e37ddbbc0229faeU,
  0xbf961778bf206abdU, 0xbf73a1edc0357656U, 0xc062f7e2bfd7d20dU, 0xc0138000bfcc829fU,
  0x4062676b40001affU, 0x3cbfa5543fed1ea8U, 0x3ff9b5863f9da312U, 0x404d94be3f05c82aU,
  0x3fb3a4c23f5779d3U, 0x3fdf70babff8ce48U, 0xbfbcf544c0854bbdU, 0xbf97a2adbf71c189U,
  0x40650f37c01980c9U, 0x4006ffcbbe544c17U, 0x3f12496940a2a562U, 0x3f9edd0dbe4f919cU,
  0x4005b3fbc08b1021U, 0xc0456c2e3e997e9fU, 0x3f28719abeecfd02U, 0xbf423c22c042a1f6U,
  0xc0039b194001354aU, 0xbf837554bf93338cU, 0x3f52afab40621981U, 0x3fcf5faac03f9ae7U,
  0x400a79f0bfded690U, 0xc08073a9c050cd10U, 0x3d136426bf8ff6d2U, 0x3f8ad969bead8e77U,
  0xc0c112083f4f7782U, 0xbe633989be315aa0U, 0x409b2d2c3e39c7e2U, 0xbfcfaa53bfae1735U,
  0x4027b1fa3ee35820U, 0xbfd1997f3f0d81e4U, 0xbff7906840028430U, 0xc00811633ff5a7d2U,
  0xc01a89e4bdc67db4U, 0xbe04b16bbfd63195U, 0xc010678bc00bedacU, 0x3f612698bf9483b8U,
  0x4008fe113fa02718U, 0x40041f72bfa08edbU, 0xc001a33dc04d53e8U, 0x3f31d462c086c2caU,
  0xc05bf39c3f017ae6U, 0x3f8139a8c04391eaU, 0x400ffee2c081c35aU, 0xbcb23a783fd4f1ecU,
  0xc040798cc075e694U, 0xc04d4ade3fd5fb60U, 0x3feddfd4bf9248cdU, 0xbe57bfbf403bf64bU,
  0xbf76e9f7bfcad58dU, 0x40315351400426eaU, 0xbf2d05513ff9f8d8U, 0x4016b0b8c0318815U,
  0xbf682c5abff06cfdU, 0x40458d40c000bcf9U, 0xbf18003c3fff2bd0U, 0x405f0529c02853e9U,
  0x3f8fd1d3c0702695U, 0xc06347d3c0145e3aU, 0x3fe466e6bef73500U, 0xbf66a6ff3fbb8dc5U,
  0x40473df9be137ef9U, 0x3ea60260c010224eU, 0x3f790dca3d224f10U, 0xc0228a3540126741U,
  0xc00432d5c023cf91U, 0xbfe137853e350a5dU, 0x3de0d860bef01dc1U, 0x3ffb37053fc5a694U,
  0xbfdea9b3be5d705dU, 0x3e8ef384bd0f3f33U, 0xbf5f5742c0836235U, 0x3f94920cc0295572U,
  0xc02034b53f8c96f6U, 0xbf02210fc091d9a0U, 0xbfb8474f4085aa27U, 0xc03c29b9c0174454U,
  0x401a075ebfe19678U, 0xc0296900bfc4062bU, 0xbf0f1a46c01c6550U, 0x4031c163bf246a1cU,
  0x3f9d31cac0142608U, 0xbff737d53f7f18a2U, 0x40141f07c0450e31U, 0xc01fcc073da2ed80U,
  0x3f896e1ac0911dbbU, 0x3d8d48fcbfe2c791U, 0x3f150bd9c08091d0U, 0x3f64d6933fdd003dU,
  0x3f1f52ff3fa49409U, 0x400f124bc067eadaU, 0xbf23b6a63fad68ecU, 0x3fc223223cd34e05U,
  0x4038f59440365fdeU, 0xc0445b31403c523fU, 0x400e38a03fb551f7U, 0xc0205653bebb2244U,
  0xbf2d0064bfa88c10U, 0x401f03af4008b153U, 0xbef028a140813676U, 0x3fe877313e244a89U,
  0x404958d440849e66U, 0x40306391bed8c276U, 0x3e4d78043f85c5b6U, 0x3f7a2aab40254a77U,
  0xbf702092c0177af1U, 0xc00ff9e23f5bdabdU, 0xbfb94b9e3fad6011U, 0x3d1d54e2bee87944U,
  0xbe9c5f453fb27e75U, 0x3fe578633f29cb05U, 0x3f0f996e3ec68e0fU, 0x3faa0f2a3f4a9284U,
  0x3cd86df9bfd06a59U, 0xbff8537bc000a131U, 0x4042166b3fcd6c50U, 0x40380b333f4cae56U,
  0xbfd24a3ebf1723daU, 0x3fe4293dc063ca8fU, 0xbe2a8782bfce1f24U, 0xc02a286e3f78ce79U,
  0x3ed164d940277d81U, 0x402063dcc02179e0U, 0xc086639cc00dc626U, 0x3ec432cbc06971b7U,
  0xc03765a2bfb56a29U, 0x3fb983d7bef573c7U, 0xbf2cc5a940271aa8U, 0x40074fd5c02a325fU,
  0x3eb04c44c00e74bdU, 0x3f955841403b923eU, 0x3f7e7d07bd84775bU, 0x3fd131a2c03f2035U,
  0xbfe121f2401b7ba9U, 0xbfed8165bfd01a85U, 0xc01adbc9bfa938dcU, 0xbf7343154013ad54U,
  0xc0b6e3d040a2657dU, 0x3f9c5b243ff749ddU, 0x4025371840340349U, 0xbf8b70a540100a4dU,
  0x405b3573bf8c1e7dU, 0xc0162de83eba459fU, 0x3ffff8a03eabd84bU, 0xc033893abf3db594U,
  0xbfa5b6bd3e4e0addU, 0xc05fff90400205e3U, 0x40b3310dbf9d520cU, 0xc001aa0fc04ccbe0U,
  0xc05459ed3f8e7a20U, 0xc0496b87c09e2ff1U, 0x40029e4e3fb86ad6U, 0xc000b4b1c0107b5aU,
  0xbf95c9483e9031e0U, 0x400503ffbfc5cec9U, 0xbde5bf233f8ca408U, 0x402046113f5abd7fU,
  0xbfdfa8d0402c2f21U, 0x3ec8f8b6bf6d5a1eU, 0x3f401974c02ff38eU, 0xbf8ef1f4c004d145U,
  0x3ffaa56cc08b9e80U, 0xbef88c1dc05caaeaU, 0x3fd7865f3e4fe884U, 0x3eb7f5554010a6d1U,
  0xbf47d6023e9b9929U, 0x3ea2a0eabfe9790fU, 0xbe49837cc0256bebU, 0xc0460636406238dbU,
  0x3f8ead6c4043a3ffU, 0xbf1773ce4039d52cU, 0xbed57738bfd293f5U, 0x3f959dce3f339251U,
  0x4016a8843ec2c707U, 0xbffe90f43e1e2c07U, 0x3f8ce1023ecac2ebU, 0x3fc4beadc08ad9b3U,
  0xc062432f3d9e10f8U, 0xbeaa7d773eafe82eU, 0xbf97d931be362e26U, 0x3f89a458bfca3edaU,
  0xbfcc47e84036532bU, 0x3f8aa34b3fb7493bU, 0xc03e4a663f4711ddU, 0xbf7d93f2c06b08e6U,
  0x40084ef0405e35aaU, 0x3faa80143fcc0c3dU, 0x3f11c0d63ed1efeaU, 0xc08c7213c056cc3bU,
  0x401e1bedc001989fU, 0xbf453ba64003138cU, 0xc02799eb3f372ce5U, 0x40213d4fbee3a7edU,
  0xbd2007843f718823U, 0xc077adafbefc6ff6U, 0x40141f0cbf2de292U, 0xc0913423bffc4cecU,
  0x3fa75f823fd8c57dU, 0xc0484065c06aaac8U, 0x4045c64f4036b00dU, 0xc03ed7dcc09049d6U,
  0xbf943249c02d9ca4U, 0x3e933f39401c6197U, 0x4036eb653f5eb3ebU, 0xbe71b23ebf8c56aaU,
  0xbfc70ed5bf6d4014U, 0x3eea5c95bf286041U, 0xc007bb3fc00cec8dU, 0xbf8cce3d400691c3U,
  0xc0676ea83ec8c37aU, 0xc0321da1402afc55U, 0x40359300bd7b25ceU, 0xbfc35ec93fe961b8U,
  0xbe78b6ddbfe0ab40U, 0xbe980a523fed8141U, 0xc037c88bbf5c5021U, 0x3f6895db3feacda9U,
  0xc07f430a3fcfd448U, 0xbfc56091bf9589aeU, 0xc018488940201e35U, 0xbf853157c0073500U,
  0x4069a8dd4035d499U, 0x3f1fd1263f9d06b9U, 0xc05517873f65937dU, 0xc010881c3f645216U,
  0xc01956ed3e910224U, 0xc03720e63ed570caU, 0xbee34dcd3f23eb7dU, 0xbf48d0203f696353U,
  0xbf076604bfada2d2U, 0x3f117c13c01c1770U, 0x402809813feceb83U, 0x3de663034025651aU,
  0xbf2a034abed3f2c1U, 0xbfe85f46c0496f02U, 0xbfd910e7bfc3d6dfU, 0x3f9c664c3e517b57U,
  0x3fd13f793f089453U, 0xc00c0bba405276c1U, 0xbffa798bc048b79fU, 0x3f81b22fbffd27cfU,
  0xbf83819c3f7f069eU, 0xc020da90c08eb6f1U, 0xc047a268bf9f3bb8U, 0x404e1826bfe78204U,
  0xc01c300a407818fcU, 0xbf81d9143f1e506bU, 0x3f9c80a23feb4182U, 0x3efb00bfbf95a773U,
  0xc0a453dc3e94d73dU, 0x4067131ec02a40e2U, 0xc097d5c8bfa3a2e6U, 0xbf7b5e18be2af201U,
  0xbf33ef7fbfb72a0dU, 0xbf58cf52bf805bfdU, 0xbe9bc0f5bf78452bU, 0x3f874ea73f08a9c2U,
  0xbfaff81fc005f3a5U, 0xc07310cbbf42d45fU, 0x3f1fd5e5401ddcb3U, 0x3e8b7d3bbe87c415U,
  0x4017c53cbe91ae7bU, 0x3e826fb3bfd20868U, 0xbe6a7ba13e4760afU, 0x404ed524c08093adU,
  0x40d70dfcbebf5f13U, 0xc05599d9bf766fcaU, 0xbfbce664c0a15a45U, 0xbf93377d400e7d90U,
  0x40551967c0a25dccU, 0x3fc641bf3f329646U, 0xc01ad2cebf01b957U, 0xc095eb86c090c551U,
  0xc00e5616408e8b1dU, 0x3f92397b4026679cU, 0xc03d86063e9468e5U, 0xbfa348d940117bbdU,
  0xbf91d116c08a610fU, 0x4040a3cdc0297c97U, 0xbf0019333e94483dU, 0xbf39525e3e8e67d1U,
  0xc01c249a3f8d5740U, 0x3f210666bf93f6efU, 0xc041c9d8c02f3db2U, 0xbfb75c99bfea5ea7U,
  0x402c050e3f5c147cU, 0x4043920abffbda0bU, 0x4004da3d405b4278U, 0x3f66ee224015afeeU,
  0xc008b297bf966da2U, 0xbe6431c33fe81cf0U, 0x3ea7177340490db8U, 0x3f97d1883f7ae5c6U,
  0xc0021832c04ede67U, 0xbfea6189404a514eU, 0xbfb091824018e4ccU, 0xbfc69716bf6bb677U,
  0xbf8a78a4404131c5U, 0x406ea74d3f919be3U, 0xc03dbe5cbf5aecc5U, 0xc090b962bf869ad6U,
  0xc01cb586becf45aaU, 0x3f9861f8bf27ee41U, 0x3fef95783fce1941U, 0x3f9e18a23cf63ee4U,
  0x3ff60fc0bf872b03U, 0x401744833f15be44U, 0xbfbe4bb9bcbaed3dU, 0xbf0b219ebf820e77U,
  0xbf9eb6e8bfe811d1U, 0xc04d1dffbf85191bU, 0x40b1fa3bc01d84d5U, 0x3e88ada0c00a18c6U,
  0x3f339069bffeb43eU, 0x3d20f5a23fc08ebbU, 0xbeb1d75b3f282e30U, 0x405c86c9407541e2U,
  0xbf6251febe8336fdU, 0x4032dfce3f28b335U, 0xc053c0df3ed556d0U, 0xc03ef968c03b21c2U,
  0xc0078401409e10dcU, 0x3fb83b183f611d36U, 0xc021bfa0bf49e539U, 0x40312d22bee2cd8bU,
  0x404690f23f36686eU, 0xbf5e13523f86b0beU, 0x3fee4ad93fbd23e9U, 0xbf4d49ce3edd94baU,
  0x3fdfcac7bf0dc9dbU, 0x3f402277bffb2df8U, 0x3fc07b91bfd964aaU, 0x4015d5b43ef2e9ceU,
  0x3cae72bec004228cU, 0x3ebae98a401dda9cU, 0x3ea1d156bf60ab13U, 0x3f0b02cbbead0878U,
  0x3b9203fe3fe66077U, 0x3f177f603f3bfed9U, 0x403e9afd3fed8c73U, 0xbe3710c6bfaf7710U,
  0x3ff3f5bd4008cb14U, 0xbf5a3357c0a08f7bU, 0x401483474045e1bbU, 0xbece45b1c0408ab0U,
  0xbfd327bd3fbb92d1U, 0x3f9f189a3f375d8cU, 0xbf678b86c037100bU, 0xbfc3fbd04049a67fU,
  0xbfdddbd9c035d7c6U, 0x40fedfc23f022e2fU, 0xbfff07073f8bd166U, 0xbfbe66acbf9bedaaU,
  0xc05b46b8bed5c640U, 0xbffb7cc7c02122a3U, 0xc0502ac13f960df6U, 0x4043156b3fd9d6aeU,
  0x40036111bfcc8b0bU, 0x407f21ad3fc08f51U, 0x408c8b35c01134f7U, 0xbf2d33083c8fa1cbU,
  0x402881ae3ef5cc9cU, 0x3c281ee8c006a7e4U, 0xbfbb04c83e35d3c3U, 0xc03bb918409dab26U,
  0xbe4650403f33799fU, 0x3f2f3567c011ead5U, 0xbfdb0d4fbfc42ba8U, 0x40208fb8406a87f7U,
  0x3f95f9663e938a41U, 0x3ff34fca404fe1bdU, 0x3fab1b96be82bef1U, 0x3f78e5c8c00d8e47U,
  0x3ed0878d3ff00bb4U, 0xbf0797e0be6c99d9U, 0xc0006199be278a89U, 0xbf16cc7b3fb83e38U,
  0x4049d28abff9c461U, 0xbfd05569bf3c637cU, 0xc05125d13fcf0afdU, 0xbffa1f4d4040e351U,
  0xbfae863bbfb9ce39U, 0x3ed7538d3fff895cU, 0xbf538cdcc018a938U, 0xbfdc9764c03f0ad9U,
  0x407da4d53f761907U, 0x404f96433eb7503fU, 0xbf9618ad3f596415U, 0x3eef57e2bea1d96aU,
  0xbf3fd1f33ed4e34dU, 0x3f482daabec307f4U, 0x3f3b95183f8239e3U, 0xbf67be144017a5a5U,
  0x403289a3c07d1cc8U, 0x3fa7536d401151f3U, 0x40a29468bffcbaf0U, 0x3faa1ed1c009fec6U,
  0x4054fb8fbf5cc6c8U, 0xc068b614c015c944U, 0xbf5893c540018770U, 0xc0122beb3f9748f8U,
  0x3f8fad17be27a71cU, 0x40245bb6c0273641U, 0xc027a99640875989U, 0x4062b197bfc2fe75U,
  0xbfdedb77c0227f3bU, 0x3f94130f40679f8eU, 0xbf94120e3fdff018U, 0x3fd182723f622120U,
  0x40c957e43f064e55U, 0xbea0600d3fc18c60U, 0x40961f933ffadb55U, 0xc02977b33f8a7bfaU,
  0xbf2e48adc06ba577U, 0xbf8c201840456421U, 0xc08aff383edfa84fU, 0xc040a9213fbc81b7U,
  0xbfd3fcee3f8c1829U, 0xbf5addab3d1ff5f0U, 0xc0382ecdbfee97ccU, 0x3fe99afbbfaaf964U,
  0xc0aa4952bf94b74fU, 0x3f981df53fb896b4U, 0x3e4e81ea3e8086bbU, 0x3faea4b93eb9c045U,
  0x3f73970340245d1cU, 0x3fed1062c02bf93bU, 0x4013c742be4e36acU, 0x4089ae39bf6a40c9U,
  0x3fb5a5453fc95fa1U, 0xbfadbfa4401c872aU, 0x3fc86ed9c0013f89U, 0xbe98846abf5864e4U,
  0xc0357cd8bf84c8f8U, 0xbf768a8f3fec9b59U, 0xc033b4b3bec5556aU, 0x3fe060e7bf15c110U,
  0x40276fd9c0073671U, 0x3fa6290cbf0d8684U, 0xbe191890bfc7f25fU, 0x3f7f786d3f2ff8aaU,
  0x401921d4406fe9daU, 0xbf7501bec0149ba0U, 0xbeeb4c163faccd2dU, 0xbf7bd8c53e885cb6U,
  0xbf4c933e400aa11fU, 0xbed5c78c40b89c69U, 0x3ec59106406dfd46U, 0x3fbfdb17be661febU,
  0xbf1bb35ac0b978f4U, 0x4060231cc005023aU, 0xbfed713f4019a2ddU, 0x40ae46dbbf6420e0U,
  0xc03707dc3f6abe48U, 0xbff2b2f9401e3794U, 0xc02a36583fb7df85U, 0x3f850b423ffc257fU,
  0x3f873a53bf532dc3U, 0xbfb6c8c1c029155dU, 0x401aac5ac089b38aU, 0xbf1201023fbd89d4U,
  0xbfbe73fb3efd8261U, 0xc04dd7953ecccfa8U, 0xc028995f404da268U, 0x3ede329f407ebf01U,
  0xbfcae0ddc0b9cabbU, 0x3f93d474bf907eaeU, 0x3ffb2cb93f456887U, 0xbfb1885dbfe2cd83U,
  0xbfbfd683bfbe1df2U, 0xbf4dc2ed400f5649U, 0xc0176008bfba68d7U, 0xc0358122c06238ecU,
  0xbff9cf59be408fc5U, 0x3f81c1a43f031f1aU, 0xbf8507a7408457e2U, 0x3f3e6b4740717a9cU,
  0x4014f2e9c00ccc80U, 0xc005f26a3e44a531U, 0x404952633fc160b4U, 0x405fb5653f6c506bU,
  0xbe7bd4804029321aU, 0x3fafcdc9c08990f4U, 0xbfe15fe43f3c16c6U, 0xbffa0828401281c1U,
  0x405e5dafbf993ea1U, 0xc04be96bc009993eU, 0x4004f960c03e5434U, 0xbfbd712e407159b4U,
  0xc03b253d3f2dbdf4U, 0xbf1ccf8040409207U, 0xc008decabeb2c7ecU, 0xc0008e564020d790U,
  0x403105f0bff2e795U, 0x3f556d244030e632U, 0xbfb318aebfde8c54U, 0xbf2e4463c0a7febaU,
  0xc001177b3e866753U, 0xbebd5cbbbfb24378U, 0xc0803d48bfb55da1U, 0x40abc033bfc8d38dU,
  0xc00c329a3f97228cU, 0xbf4106b3401b4d4dU, 0x3f5b8256bf8f5367U, 0x4007e93f3dc520eaU,
  0xbf9c14bc400de0ccU, 0xc0068cb83fd3d1ecU, 0xbfb6323bbfe98a6aU, 0xc009fffd401d6ef0U,
  0xbfac3521400b7797U, 0xbfa39ffdbfadab7cU, 0x400eae8dbfc05f98U, 0x4060d83dbfcb1a6bU,
  0xc098a85040909a95U, 0xc005126cbdcf9e60U, 0xbff51cddbf12e875U, 0x3f95945ac00f2e1eU,
  0x3f8511dbbdf6cf51U, 0xbe5b2c4f3f92fafeU, 0x40a169afbf5a9c34U, 0x40a6c897406b29c6U,
  0xbf3b3dd13f541f3cU, 0xbfb7d69c3f468fa6U, 0x3ea10ed8bf661920U, 0x3f697f2e3f9926d0U,
  0xbfaa30c840b445adU, 0xc0076f36bfb47503U, 0xbfec5edfbf427280U, 0x407a4efd3fdbb495U,
  0xbfc2063ec00335e3U, 0x3f48d858408cae2cU, 0x402a348fbf6eb3a1U, 0x3f888f38408bbb95U,
  0x400e7117bfe9a07cU, 0xbe9e492c3ff9efe7U, 0xbfd9a366c01a69a7U, 0xbf4f657b40a77303U,
  0xbfa9c667beeb9222U, 0xbf50c3b83fd9d90aU, 0xbfb4dd833e019b86U, 0xc06951cfc037452cU,
  0xbe33b28b40063ceaU, 0xbf735d2540747b05U, 0x400a844c3fb944a2U, 0x3fb29a543feb273fU,
  0x3edecfbf3f2dc2c3U, 0x40151e4a3dadf0e0U, 0x3e31e7cb3f694dd0U, 0x402aaff14099b999U,
  0x3feebb1bbe5f8d57U, 0x4001388f3f16ed2cU, 0x3fa829a14094974aU, 0xbf931b3b40720eeeU,
  0x40a77d063edbb863U, 0x40460225400e6c74U, 0xbfc384ccbe81c79cU, 0x3f93cf1440145b39U,
  0x400e76e8400b1195U, 0xbffea37dbfe70746U, 0xbe2b1b15c03f6e49U, 0xbea6c131bf8f1539U,
  0x40154554c006ead9U, 0xbfaf3399c09c5faeU, 0xbedfe7663f9fc3a0U, 0x4043529d407e7140U,
  0x3fa709e73fe5dd61U, 0xbf0b90d2bfc83ac0U, 0xc0864fdebfdcd894U, 0xbf32291dc00fe462U,
  0x3fc27578c011f93bU, 0xc00d8d5c404410f5U, 0xc06b316ac0138813U, 0xbf6de70040cad685U,
  0x3e9673643dba68f7U, 0xc082fb80be633f9aU, 0xbfa522d7c03d081bU, 0x40064580bee569e4U,
  0xbfcac0183fff96aaU, 0xbd86c2923f3e3617U, 0xbecbac8640389a42U, 0xbf5f4484bfa15330U,
  0x4074c3c83eef30b4U, 0xc018b5d6bfe07cacU, 0x3f03a2f43fe2ba11U, 0x3fe9200ac011c9c6U,
  0x3ffd0abfbfcc9a8fU, 0xbe8e15e540611759U, 0xc020f5b8c0821e5fU, 0x40573aabc03d0cdcU,
  0xbfcc317a3de2787bU, 0x3e22adb9409883f2U, 0xbef3cc6dc004d4f8U, 0xbf57710ac0832db3U,
  0x4087a7bfc0d97b74U, 0xc07b4b91408ed5bbU, 0x3f567a02bfbe5805U, 0x3f24ea203fe18f94U,
  0xbf14e93a40579ac6U, 0x3fb1a9b63f783529U, 0xc054e0ecc016b677U, 0x40509133beb061a2U,
  0xbdfc9d923f2540aaU, 0x3fe84238bfbb10b2U, 0x3f9aac7a3ea4cb97U, 0xbf44be13c00fe6d4U,
  0xc07c9c893da77aecU, 0x3fc2b9adbf441d10U, 0x3fa3c883bf0fe30aU, 0xbe009dc13fe58e0dU,
  0xc05d4fa1bf88e24dU, 0xbff90006409c1f99U, 0x3f7b7a6ec05d5e3cU, 0xbdc221493fc81b37U,
  0x400a53144072aa8dU, 0x3fc3222a3f133b95U, 0xbf89b8c3403d7945U, 0xc01f6c0dbee40959U,
  0xbe490937bea525baU, 0x3fecdd6bbfb18246U, 0xbe8758b5bf8c685fU, 0x3e132a583ee31f29U,
  0x3eb56e5c3f3404c3U, 0x3fc5a56bbfab6f2aU, 0x400f46aa3faeca5eU, 0xc0702bee408ce682U,
  0xbe86c0f63fcd9724U, 0x3dd597e6bffd97e6U, 0xc075ae243fdd6c3bU, 0xc00705aac00ddea0U,
  0xbeb6f2abbf7cef24U, 0xbd773e1f406198e5U, 0x40255fa0bfad2a39U, 0xbedd2967be9a3840U,
  0x3ff4fc763f643429U, 0xc0157a743f82ae65U, 0x403db428c0649c1cU, 0x3ff8d42fbfec3b0fU,
  0xbf33c60640bc7a9cU, 0xc02248703ee8cd20U, 0x4090a1c93e8921ecU, 0x3f0560744054d542U,
  0xc03ade9dc0823effU, 0x3f07d7a6bfd4d61aU, 0xbf823cf9c00277f9U, 0xc03c16ff40493e0dU,
  0xbf9d1b413f9f36bfU, 0x4012d9013f5b0ab6U, 0x408939bdbf8749d3U, 0x3f4d3577403740e9U,
  0xbf0000973f075232U, 0x406ce37cbf292709U, 0x40276921bfc60b4fU, 0x3f88ceabbff62a02U,
  0xc0275c0d40788dffU, 0x3e6a1176be44c63fU, 0xbf6644533fd3aa3eU, 0x3e35638bc0b9012dU,
  0x407942aa4073c727U, 0x3e89afb7bfd83b68U, 0x3f7e0892c010753aU, 0x402b99113e137ed3U,
  0x3fbdf2f6c073fefeU, 0xc090613cc074ff24U, 0xc058c21abf7726b7U, 0xbe63685540119df1U,
  0xc0b1f342bf08a1a8U, 0x3ddf0be33fc5aa1fU, 0xbe261f00be9e94c9U, 0xbf41c5ddbe5b97f3U,
  0xc03920c6bbb375fbU, 0x4023cd6ac07040e4U, 0x40223d594027c2d8U, 0xbfcf0d3740883abcU,
  0xbe62eba43fb7227cU, 0xbef16a28bf77ca68U, 0x4066bbe1bd4be3f9U, 0x3e70111c40050997U,
  0x40ce4ca6c06159c7U, 0x402b164d3f74df6bU, 0xbfff18cf4018ddadU, 0x3e9310114017e608U,
  0xbfc4ab7abf0aa114U, 0x3fbf038e406b624cU, 0xc0099f543f2f743aU, 0x3fd993713f817de2U,
  0x3e87e630bf4df740U, 0x3eafafa8c004a77fU, 0xbfcf6080c0066be9U, 0xbfab6151c0673817U,
  0xbf233654bea33ff3U, 0x3f5fc39bc06625f0U, 0x3f471448c026ff7fU, 0x3f25f55bbfe8b81cU,
  0xbfcb694c40758984U, 0xc0036cc53fe073c3U, 0x3f8f1a003f930430U, 0xbe0ee8d83f09ee38U,
  0xbfe2d7f5bfbfacc6U, 0x4032d28d400ea5e2U, 0xbf374bcd4015ee34U, 0x3ced541abf0e18cfU,
  0xc0652edec06411a8U, 0x4050e766c07310e2U, 0x3f39954d402e7975U, 0xbf45c746400a94c3U,
  0x407ff09d401206d7U, 0x401e52483f60d913U, 0x402ea7c8404273d5U, 0xc046db433e492c66U,
  0xbf33e2603f28869bU, 0xbfd9e6fcc0299cfdU, 0x4037dc16c012da99U, 0x3ec6a9b9bfb5654bU,
  0x3e0f8a6a3f8a7513U, 0x3ff501ac405231bdU, 0x400a8a994071c4b7U, 0xbf47bc8d4090c43fU,
  0x3efcbee4beb490abU, 0xbf91c8263f7591cdU, 0x406f5fb9c04f57d4U, 0xbe637057bf6f1633U,
  0x4059a1363e360d97U, 0x40064fa6bfb6c76aU, 0xbff7726ebfa4d623U, 0x408ce6653fdd3b8cU,
  0x3f8f13334012a1d8U, 0x3f5dca5ec0941f21U, 0x3f7c301ec089ce39U, 0x3f8e8a4fc0317fbfU,
  0x3f5ea438bc5016a2U, 0x4048c41dbe452ed2U, 0xbfd49a14bfa52d54U, 0x3eaffec5c037631eU,
  0xc01c7e503e380ddeU, 0x3aeb58633d916a38U, 0x3fc269d3bfe141f1U, 0xc01489f53f512bdaU,
  0xc02c0fd14026ffb5U, 0x3f3b952a401698acU, 0xbfa26465c03de8cdU, 0x3ff22c5dbe68acd5U,
  0x3f4062cdc02f4f74U, 0xbf404df6c02003ecU, 0xc0ae05393f2a1e13U, 0x401eb728c0683699U,
  0xbfc8a5f33e4237b9U, 0xbece25eebf0c4d0eU, 0xbf00dc94bfbec4e0U, 0xbf46cdd23fcbb639U,
  0xc03e694cc01c0864U, 0x3ef43003c044a6b9U, 0x3fe11b35bff594eeU, 0x40351368bfe91ba5U,
  0xc0315e8abfa21d4aU, 0x3f2ae1c6bf0b0705U, 0x3feb286b4063c8b0U, 0x408e53033e0ec1e9U,
  0x3fa33977c013767fU, 0xbf3c4e173ff83660U, 0x3eb1f6bc406d1d68U, 0x4023c953be0c20deU,
  0x3e2d4724c0bcc144U, 0x4064df9f4027346eU, 0xc03ff2a53d596b41U, 0x3fa245c03fee3e58U,
  0xc05055eabfa42a34U, 0x406b08b23fd4ac09U, 0x40900f0dbf83bc68U, 0x4063fca1bf9d5f3cU,
  0x3fa479713e692c98U, 0xc08a21e23f3cd1e8U, 0x3f4b4c60c02d444dU, 0x3cf8950b3f331d4fU,
  0xbfe6195c402155f6U, 0xbe8787e7bf1f3431U, 0x4004b813408094bcU, 0xc0590bb5c014f5b8U,
  0xbfc75831c00b143eU, 0x407153ca3f86a541U, 0xbe076fdfc0d25a64U, 0xbc2e2cfabf3b9389U,
  0xbf865afe3e97688eU, 0x40144fdbbdbd04beU, 0xc01b9edd3f622720U, 0xbffdd51bbf87aea5U,
  0xbf18ada9bf6d99ccU, 0xbf5f6a413ff662dfU, 0x403165c53edb2308U, 0x3ff62346403842b2U,
  0x3fbf7f03c0082c35U, 0xbd8d612cbf7226a9U, 0x3f95f49e3f7fc163U, 0x3f422068c02905f2U,
  0xbfe479d9bf081ee8U, 0xbfb40fd23ea443d7U, 0xbf52e6d9c08247fbU, 0xc01745273fe4280dU,
  0xbfb32256bfa22153U, 0xc0b4d697c052459fU, 0xbf8b8b114019b68eU, 0xbe67e8f73fe989bdU,
  0x3eb7c5b0beddb891U, 0x40285670be889686U, 0x407e68af3fba0ae6U, 0x400bdd4340182d53U,
  0xbee993ee3fd41fcdU, 0x404282dcbf3a193dU, 0xc02152154057a97aU, 0xbff65031bfbe75ccU,
  0xc00e2c24c0a8af5eU, 0x3f94a196c023b189U, 0xbe7871ed408ae691U, 0x400671983f50f2e2U,
  0xc074c0014071b99fU, 0xbf70c5ce403c86d3U, 0x3fe8b5e84045e137U, 0xc023e87cbf8bf7deU,
  0xbf17945b3f977d6eU, 0x3fc6a154bf4c6686U, 0x3fb7bc483e965efbU, 0xc00d22f340159a2dU,
  0xbfa913aebe81a6dbU, 0xbf4813343fef8e0eU, 0x40022699c03fb73eU, 0xbe05b3143fda21c5U,
  0xbfbaa2413f892c77U, 0xbc2c3bc0bfd875afU, 0xbdfe2013bf0f5b36U, 0xc06bee143fe59522U,
  0x4034eb31c03be563U, 0x3fb415c0c00ad1a4U, 0x3f56bdbc3e5c0725U, 0x3f930078be945d5bU,
  0xbf7da4303ed9b6b3U, 0x3f77b33b40272f70U, 0xc08af73140531778U, 0x4029bdd2c086f08fU,
  0xbfd598253f21d8f0U, 0x3f83967d400a17dfU, 0xbf65f817bf5352bbU, 0x3f8f41c0c0038ed1U,
  0xbf779062bfd39e15U, 0x3fef79e040102063U, 0x3f91cd0ec032ae97U, 0xc002f94abfc64e95U,
  0xbfa52d43be842b7bU, 0x3f571b24c0295299U, 0x3ffba8e3405ddd91U, 0x3e7751b940589ecaU,
  0x3e6b91eabf25a816U, 0xc04fd6adc098b45cU, 0x3fb4c7b7bd8ff142U, 0xbf1342a83d31bc9fU,
  0x3fc97619408d4a35U, 0x3f3b38424057dd45U, 0xbff3711e40651720U, 0xc01a16733f61beddU,
  0xbfc14176c049ff11U, 0x3f3f98763faef068U, 0xbd9c30243ea72f45U, 0xbfa30b383fcfcf42U,
  0x3fd6a3b540812fd6U, 0x40151129c05fe3e5U, 0xbf3c412440434ecdU, 0xc03c3fc3bf085a54U,
  0xbdc8b8554003cc0aU, 0x3f311304bfe902e1U, 0xbfb8490cbecaee90U, 0x3c7d22403f0cf494U,
  0xbed773cfc082daadU, 0x3eb658b63fec6f46U, 0x40a1c0793f31e257U, 0xc00a6c653f80178dU,
  0xbe278b6f3f130111U, 0xc00c2244c03b1653U, 0xbeb44c6dbfa64e44U, 0x3f95a1e83f80e42fU,
  0x402a2126c018153dU, 0x3e540184bee70a2aU, 0xbf4d935a3ed57c71U, 0x3eb1838bc038fa5eU,
  0xc015d779bff40476U, 0x3f3211d8c00629aeU, 0xc07b0290c037d451U, 0xbf9c532e3f50e6b7U,
  0xbf96d32ebeb891aeU, 0x3fafdfa8bf477cf4U, 0x40744bb4c048bc3cU, 0x3f63bcf6bfa2cefaU,
  0xbec35d93c034abc9U, 0x4028ab48bfc91e0cU, 0x401c784abf1b7688U, 0xbf1403983f17c32aU,
  0xbfa6cf22c056ecf1U, 0x3f0f5612bf988ca6U, 0x40254939bfa249f8U, 0xbf39bb86c023adceU,
  0xbecd3e3dbee8da1aU, 0x3ea4b4c93f9a0ffdU, 0x3f149b2d40495dfeU, 0x3f70dcfb3fb037aaU,
  0x40065425c0031fb9U, 0xc0131107bfe7bd78U, 0xbf1f3044bec4681fU, 0xbfe6ae36403a1320U,
  0xc04586a03f8d1d8fU, 0xc039c4b23fd33fd6U, 0x402aa779bfe2f426U, 0xbfa43f243f06345cU,
  0xc054bb8fbfae7adfU, 0xbf53e3f93d9c31f0U, 0xbba5c4b13f7064a6U, 0xc02a2c28c0513a56U,
  0x3eb51474c04e0ad3U, 0x40277d5a3fef6ec7U, 0x409afee13f3e01f7U, 0x3e99c61740481e7fU,
  0xbfa53a9ebecd049fU, 0xc00379fbbfb8cb36U, 0x40aa6b1cbfc3bab8U, 0x3f81e6a13fb26df4U,
  0x3f515361c0037b27U, 0xbf36e4bfc0153701U, 0x40244646bff9e905U, 0xbe9a23403fe11eefU,
  0xc06f3b1cbedfe606U, 0xc042d18b40883332U, 0xc092d7c5404f2048U, 0xbebe81fabf2bf71aU,
  0x3fc950ef40764cd8U, 0x3f981d5ac00afe77U, 0xc034746fbd4141b9U, 0x40068f403fce5930U,
  0xbf0a0a07beb2b49bU, 0xbfcaa00dbfc3a14fU, 0xbe45bf44c02611d9U, 0xbdedf2bec074453dU,
  0xbebffab1bf6af6f6U, 0xc05f22f43fa7b539U, 0x40a8b957403eb21bU, 0xbf782bbdbf0fe5bcU,
  0x3feb3a693f30b82cU, 0xc00327173f446b1fU, 0xc03c46d5c0602a42U, 0xc0249ade40636d3cU,
  0x3effa809bf88a9b9U, 0x404fb5febf5bcb3fU, 0x4026baf7c0098d0bU, 0xbf104a6b400f5c81U,
  0xbfc3f1d340a7d9d9U, 0x3fae8292bf809912U, 0x405353ccbc3572c2U, 0xbfbfc59cbf721ec6U,
  0xc045f1354029d6e1U, 0xbfee714c3e1fdc28U, 0x3f138449bf01967bU, 0xbf5d10d03f0715e3U,
  0xc06a57c6400c8c62U, 0xbea19e5e3fda5710U, 0x3fc62ecc3f351b3cU, 0x4003cac23ef5cb6aU,
  0x3fee877cc01f9015U, 0x406c8169c07271efU, 0xc0803e9ac0264015U, 0x3f54bc09c0177b4bU,
  0x3efbf421bf5c39adU, 0xc04256ca401309efU, 0x409c5ef33ffc1b46U, 0xbf23a2153f6349fcU,
  0x40277b87402f82c5U, 0x3f516be23fb999a8U, 0x40380c2d3fb72c33U, 0x4042fbf1c064119fU,
  0x3fe08426be184bd0U, 0x403bfb483ee4f051U, 0x406d761fbfe2af18U, 0xc0164f28bf7dad48U,
  0x402946f8bf1c66ecU, 0x401b25afc07ff6bfU, 0x3f28a4c74003ca5bU, 0x3fb4daeb3e31c383U,
  0xc004a8663f930430U, 0xc01b991bc0bd9958U, 0xbf246a203f1b3ef5U, 0xc04a775fbcdb55bcU,
  0xc009495c3f0b4a2fU, 0xbe9682af3daa27fdU, 0xbe633badc03f2ff6U, 0xbdbd23b9bfdfcd9bU,
  0x3f90bc923f0d9293U, 0xc0a3af27407a0501U, 0xbfa8b7833fea07d6U, 0xbf5d94a2bf2231b8U,
  0x401a5c1e3f7bf50fU, 0xbee08a633ebf3eb7U, 0x402f2b14400cf89fU, 0xbff256dc3edf3427U,
  0xbf66b92f3f9a3733U, 0x3fa0a5a03f8b70c0U, 0x3fe76ab3400217fdU, 0xbf43cfa4bdc4c390U,
  0xc04d0f463ff18687U, 0x4026b556bf8b1837U, 0xbfa48acb3f5db187U, 0xc0252ab5beccce27U,
  0xbf9f29eb3fd6c4e8U, 0x3e3e0061407b6e4fU, 0x3e95b21a401c9041U, 0xc0603afe401bdaacU,
  0xc02a88efbe87f400U, 0xbf220d4340a2f9afU, 0xc03cea403f8b3516U, 0x402c46343fe6075dU,
  0xbe85ddd7c011b627U, 0x402177ba3eb54936U, 0xc02eac8ac02ca5c6U, 0x40162561c04317a3U,
  0xbff9a7a34018ee0eU, 0xbdf015784033a787U, 0x40337d72bf8ee351U, 0x3e64b37cc024f5d8U,
  0x3f0a73ebbfa2a024U, 0x4013557b3ff28372U, 0xbf497c04bf92b05bU, 0x401914743ff5c7d1U,
  0x404e47da4032e623U, 0x3ea9b293403dd254U, 0x3f8fa5e24051769cU, 0xbfa585e43fe6d422U,
  0xbfc00722405cf8a5U, 0xbf78e1b43fa9c1edU, 0x40370ecabfd35fd6U, 0x3f3cf4febfc1cc55U,
  0x40d78aba3f92e1e8U, 0xc0257183bfcf47c6U, 0x400d4cc2c0888f26U, 0x3fd5323dc0274654U,
  0xc078cd563ffdba45U, 0x400f22f4bdf2e5e1U, 0xc043b3ea3f74a039U, 0xc01d74debecc410bU,
  0x40105f2dc060a3f4U, 0x3fbf3c2f3ff87551U, 0x4031a3993ff093dcU, 0xc028c27e3eb1922bU,
  0x400125a33e631cc0U, 0x400b67953ffb8ceaU, 0xbeea525abfee51d5U, 0x3eb86d854011c139U,
  0x3f8dee8e3f90b857U, 0xbf9d2c59be1dc1baU, 0x3ec16f71c05503d6U, 0x404c04473fd80bc3U,
  0xbfcef06abe7deefdU, 0xc01973d2406d2b80U, 0xc00015d33fb77befU, 0xbf4f65e33f1ffd8cU,
  0xc01ce7cb407df8f8U, 0xbe9a18884007c854U, 0x3fd45d243fbbd44fU, 0x3fc57af0bde52b87U,
  0xc024171d3f46eab5U, 0x3fbac821bdce0373U, 0xc01f123e40163060U, 0xbe8db5623e2ae941U,
  0xbfe910f2bff92172U, 0x3cf16e1c3e6081e0U, 0xbe0c224c3fb7e151U, 0xc023d203beef4d38U,
  0xbfe6efa0c03ac516U, 0xc003eca63fa29e98U, 0x3f23dc4d3fe6a42eU, 0xc01ada90bf368694U,
  0xbffd7ad53f82b529U, 0xc0564e6140348edaU, 0xc07db4843e11ee56U, 0x3f816b7ec06104ccU,
  0x3ef94c67bedb9914U, 0x3f0f685e3df825e3U, 0xc00be08e3f30d50eU, 0x3ff55198403b2e1cU,
  0xbf8fbcb4c067cb99U, 0xbea68a85c039f6abU, 0x3ff22991bff078e4U, 0xc05e898dbfacd2e3U,
  0x40282ac9c08a5fd9U, 0x4021642bbf3109ecU, 0xc00f3eee3f7f69bfU, 0xbfb8f350bffa88f2U,
  0xc090b68e40512593U, 0x3fff2891c05542daU, 0x3ffb72d43f8a2f4eU, 0xbf2f69743f02c498U,
  0xbf20786bbfc5357aU, 0xbf94264bbf466ce8U, 0xc0262d1e3f8fb26fU, 0x3e13a9abc01bb665U,
  0x3f5659db3fc302ceU, 0x3fe0b189bf0db351U, 0xbf8bc4c33f18321bU, 0x3f33712c400c1594U,
  0xbf5a705f3fea1d1aU, 0x3f8268644093241cU, 0xbef07e13c085b38dU, 0xbfee7e95bf7a4c6aU,
  0x4015b1c6406b48ebU, 0xbf03fc0dc0a14126U, 0x4035a7cec0c0c0e8U, 0xc02f48843feec47fU,
  0xc02a336dbf777d48U, 0x40218bde40315a89U, 0x4058ea9cc09421bcU, 0x3f37c4aa3fbeeaebU,
  0xbee7c096c07281aaU, 0xbf52983fc029e3afU, 0x3fe6f0afc049ad11U, 0xbf99476fc08a3871U,
  0xbf7aa013bffb32e1U, 0x4085e221c0389d1dU, 0xbfdc0ed73ff2d4d1U, 0x4016eedd3fa0a9caU,
  0x401fca94be0da691U, 0x3feaffe9405cb9ccU, 0xbed434f5bf579fcaU, 0xc05dada7bf4edec3U,
  0xc03ab31abf95b952U, 0x404c9d1440177aebU, 0xbbe819eabfa86f05U, 0x404a0abac0062ea7U,
  0xc0505fc7bf3b4ebbU, 0xc0615bdac05c3722U, 0xbfc4e219be792752U, 0x3fe35f5540983a0aU,
  0xc086d8adbff659fdU, 0x3dbbf1243f70db0fU, 0xbf97bd0ac0446b9aU, 0x405e95ec40100daaU,
  0xbfc6d7af401e116dU, 0x3ffc4a9dbf5b9049U, 0x4056404ec07aefc1U, 0x4043cbe0c04c1b99U,
  0x4015a9c73f321fe7U, 0x3f94bfd13f96cce3U, 0xc05ae87c3f5ea55fU, 0xbfb48e013fc78575U,
  0xc01364fac026bbcaU, 0x3eb34562c0856cf4U, 0x3fea0a0f3f9e7ad7U, 0x3fd7fce53fd3be95U,
  0xbfce06114007eeb1U, 0xbe9e4daabfc309e0U, 0xc0238782bf905a75U, 0x3ee6aa9a40595660U,
  0x3fd16689bfda7448U, 0xc06912cd3f58d581U, 0xbe361412bfd2fd14U, 0xbfe8a4d83ffdc609U,
  0x3f1211353fa7982aU, 0xbf6441543fe09630U, 0x3ea90f783fd5104eU, 0xc03e23183f6fabf6U,
  0x4061e3ffc055d59cU, 0xbddff213c03475dbU, 0x4017c535c01878caU, 0x3fc487673e5bc92aU,
  0x3efcb7753e2f4d7bU, 0xc02657d8bf04bf53U, 0x3fc701cb3fd6b3b4U, 0x3e8a49f7c0911912U,
  0xc029e8dc4015f50aU, 0xbfea2fa83e67940bU, 0x3cc64b9dbf55e72eU, 0x3f576df13fe22023U,
  0xc00652683fc66486U, 0xbf1d0386c0850afbU, 0x409b5f95c077a837U, 0xbf90bde3c06281c8U,
  0x403972a53fe1443cU, 0xbf95eba3c03f4c80U, 0x3f5d5fca3f186fd4U, 0xbfa2f2f8bfe369ecU,
  0x3fabedf93fa51369U, 0xc04ad6ccc02dea5eU, 0xc06349163f402c93U, 0x3ed116f14066f258U,
  0x3e525250c007e07bU, 0xbff0adc8bd4aecc1U, 0xbfcdeda2406880daU, 0xbf95f94cbfe70fccU,
  0x3e6ee6e63eb6153cU, 0xbf0cb62ac005e8afU, 0xbf8d06dc40403a7cU, 0xbef49f783e9bb23eU,
  0xbfce6d2cbd39705cU, 0xbfaec3a1be894fb9U, 0x3ffaee2ec010bd8cU, 0x4076b3d0bf520875U,
  0x3f96f97dbee8a2f0U, 0xc00f258f40835e0aU, 0x4083022abea60b1aU, 0xc04585553d65762aU,
  0xc009623d3e694bc0U, 0x40140bb4bf59c668U, 0x3faf48eebfa102c5U, 0x3f6ed39a4022d1d4U,
  0x3fb2560b402363beU, 0xbdc020393f8dbc20U, 0xbf888cf43e91d860U, 0x3f20fdce3fb82b31U,
  0x4095afa0c0571b71U, 0x404d87d13de65534U, 0x40119a7bc05af9c2U, 0x4053933340181cb7U,
  0xbf99536fc01fe64aU, 0xbe96adf1be97a451U, 0x401cb86bbf7f92aeU, 0x3f92928c3e641d84U,
  0x4086efcd400318d1U, 0x40883787c00339e0U, 0x3fdec5503fc87b0cU, 0x40a08479bdde1b26U,
  0xbfa4ddf4bf5a6bacU, 0x3e2c2107403a69cfU, 0x3fdf665bbfb4c3b2U, 0x3d291d673ba1c999U,
  0xbf48a3113fd6d0a9U, 0x3f4581c3bf7184b4U, 0x3eccced8bfc3149aU, 0xbfcb3b2b3fceff1dU,
  0xbfb5b48e405de10fU, 0x401e48a1c08f957cU, 0x403120d5bfe438d4U, 0x3e906891c0a358a2U,
  0x3e9cb526c066aa3dU, 0x40a36d323e8098b0U, 0xbe12188abffc3e20U, 0xc05a74aa3ea2ded5U,
  0xbf482400bdae011bU, 0x3ff426c13fc576dbU, 0x3f11413dbbad1564U, 0x3daafe03be653ddfU,
  0xbffb07b6c086f331U, 0xbed97d7c3ffaa9c0U, 0x4013f945bf3c08d7U, 0x400736a53eea124aU,
  0xc0485b873f11da21U, 0x3fb9f0733e102079U, 0x4032288a4033d837U, 0x3f93a5883f97d344U,
  0x3fc3ffab40135ae1U, 0xc07d4b603f3dd259U, 0x3f0730713fee60c3U, 0xc09c139ebfc00304U,
  0x40064344c02ea4b9U, 0x3e76cd2cbfd07035U, 0x3e23cef4c02d5af6U, 0xbfa8ea80407b0e1fU,
  0x3fa4b4dd3e9d877aU, 0xbf0c0aea3f214242U, 0xbf71aaeebf42ecc7U, 0xc00f47b8c0222666U,
  0xc0767c903efa7752U, 0xc0294fd140101762U, 0xbf742f073fdd9e6bU, 0xc0470fa7bfe46b68U,
  0x3f2de4e940259fa7U, 0x4041e598c0963407U, 0xc0ed8b93bf8ce89cU, 0xc015b0be3e70b5b8U,
  0xbf4056dabec04c0cU, 0x3f678c8d40a07fd2U, 0x402fc3023fb9500fU, 0x3ef588e93dc9ffc4U,
  0xc035467c4005f0a3U, 0xc03d7595405b2ffcU, 0x409bd6fcbdb92c46U, 0xbd1678f640490824U,
  0xc00be4bd408ab32aU, 0xbf4f2d993f7a9561U, 0xbf0fbb7abded83a7U, 0xbf984159bfef100dU,
  0xc02dbc45bfc4e4f0U, 0xc01f1b603f0580fdU, 0xbe6ba7413fdb2b55U, 0x400266e1bf487342U,
  0xbfaa7acfc0086e3aU, 0xbfc9fe21404a4f93U, 0x40717a36400aae86U, 0xc05ddbcabf68e634U,
  0xbeafa72c4010cdb2U, 0x40814804bf8e409cU, 0x408228de406821b4U, 0x3f30c1263ff30f8dU,
  0x4057ed8a40a361b7U, 0xbf4e88f43f27076dU, 0xc09008f2bfe8f863U, 0xc068af3ec0009291U,
  0xc0a3230dc09226b7U, 0x3feeffb9be36b3e6U, 0x3fbdc5054000a4c5U, 0x3f068f4b3fce5095U,
  0xbf1fc47c3fe1d374U, 0x408a3b72406b0c67U, 0x3fcee0223fa2d08dU, 0xc02673ff4053064fU,
  0xbfe82947bf75c80aU, 0xbf9632e9403a7191U, 0x40030ae3c01ab840U, 0xc06836b4c03895cbU,
  0xc03d6bcbc0151e52U, 0xc02da43a3e2e6bd8U, 0xbf924fb03f8fe2dcU, 0xbed78379c009fea9U,
  0xbfb3b4ed404fb27fU, 0x3fd55115401f92b4U, 0xbf5c12e3c07ecb1eU, 0x3dd40d923edbb11fU,
  0x40a021f0bfd06776U, 0xbd8ec76b3f9d577cU, 0x40ab2a7540c65df3U, 0xbee7be2b3f2e5011U,
  0xbfb81be4bff43314U, 0xbf9298b6400c65c0U, 0xc001d388409513d0U, 0x3df3787e405e1ac7U,
  0xbf1677b6c028fb63U, 0x3f440db63ef64f30U, 0x3f8a34d2c08c0733U, 0xbfc8bfc03e933c67U,
  0xc06ff79fc078e4c2U, 0xc0586799c002c2deU, 0x4025874cbeed76ceU, 0xc02c0ef2bfcd1b27U,
  0x3f9c1057403e51c0U, 0xbf46452b3fce5d36U, 0xc047390640943d34U, 0x3e1913febf1344abU,
  0xbfb8da0f3f33fec1U, 0xc06041443f5f0c52U, 0x3fbb3cf4bfdbafecU, 0x3eab8082c0ab2093U,
  0xbfb60ffc3f758664U, 0x4052903240533609U, 0xbf8f7d72c013ca2bU, 0x3dddfd10bf21a187U,
  0xbfd4242bbfcbbca7U, 0xbfac1534bfa9991aU, 0x406ee7733e9c2b8dU, 0xc04dbc113f503067U,
  0x3e931bbe3f6935a5U, 0xc03021e9c018b275U, 0x406624d53fb6ce19U, 0xbf059fc93f234c33U,
  0xbf7500993fc96ec9U, 0x3fbb4efb401fcc4dU, 0xbe267b8e3fc06ea5U, 0xc007055b40a09371U,
  0xbf0bb018400ffff4U, 0x3f848949bf523d16U, 0xbf98bbaf3ed747ffU, 0xbf947142c08a73a1U,
  0x400bae91c00985f8U, 0xc0070a42bed34360U, 0x4013f6b0bfe4ee09U, 0x3f3960e8bf7139c1U,
  0xbf730c963f172467U, 0xbfc8774840490523U, 0x3fbab57cc0693010U, 0xbd1c2d5abf980d47U,
  0x3fa783d13f8425ebU, 0xbfbf77ebc0319102U, 0xbf5c409cc00e3240U, 0xbfe38a4fbf30dfccU,
  0xc0486fb6c0b39fc0U, 0xc0bcbde740592a67U, 0xc02f463e3efbb356U, 0xbf4ef056bf537f99U,
  0x3d68d1b53f65c90aU, 0xbde641b03e286eefU, 0xbf7adc944082207aU, 0xbf4e20523ff50bfbU,
  0x400a6036407fe67bU, 0xbea24d553f88e218U, 0x3f88551cbea19aaeU, 0xbfe538d7400ef916U,
  0xbf9889543f8ed9dcU, 0xbf61d8d1c089c229U, 0xbfd2f38dbfabe739U, 0x3fb8e946c0cfc298U,
  0xbf11226dbdd56e9bU, 0xbf8e7f34bf9eb4e9U, 0xbf8d0d32be5715d0U, 0xbf009f74c0188e42U,
  0xbf194e083e3345b6U, 0xbf0a9f583f9b80f1U, 0x401bf368402ad433U, 0xc0686163bf13a124U,
  0x40198c7cc089a179U, 0x3f7abfb7402df380U, 0x4034b33d3fba2b40U, 0x3e3cd3633eb2060cU,
  0xc096d688bfb047e8U, 0xbeba246bc03842baU, 0xc03fa710c001c719U, 0x40055f1bc0161d0dU,
  0xc083ddd4c0a6a958U, 0xbf859675bf401fc7U, 0xbf7d16a93fb21904U, 0x40104402bdaebd66U,
  0xbf9a3b503fedd893U, 0xbf5e9d04c0373256U, 0xbe9fe172bff562deU, 0xbfc5e3a53ffe4f8dU,
  0xbf855e0e4045b055U, 0xbfddf958bf1f343dU, 0x3fad0454bfcde115U, 0xc01460c9c0a6a741U,
  0x40761f624002bc93U, 0x3fa4f5013f73fd0eU, 0xc0b314e6c09dce7eU, 0x3fd2f759c01246adU,
  0xbf87e34cc01cd44aU, 0xc0098d7cbeb93e5fU, 0xbf959c82bf9318e3U, 0xc088bc34bf8e5401U,
  0xbfae02964056299cU, 0xbfcc94d2c02ebcd2U, 0xc006e130c08b60e4U, 0xc05801d2401ec5c1U,
  0xbfe76f45c081cc45U, 0xbf3d9f7ec03b4cb4U, 0x405238383f9ad32cU, 0x3fb199d8c06eb05eU,
  0xc05adbbf3fdb80e2U, 0xbeda89d5bfc9b007U, 0xc03ddc313f5de287U, 0xbfdd36c93fb106b7U,
  0x3feacb323e1d1ed6U, 0xc05e2928befac210U, 0xbff496084097523fU, 0x3fe2d8d3400a15f7U,
  0xbf24c7d2400203a2U, 0x3f90b11abf9618a5U, 0xbea1dccf404c4fb5U, 0xbfc62892c085ff91U,
  0xbf860790400111bfU, 0x3f8aa04fc039321dU, 0xc0324092bfe97c4dU, 0xbf988b35c02b7042U,
  0xc00e02a73f4e14f2U, 0x4066f824bf45391fU, 0x402be8ad3f75fff7U, 0x3fd0e77fc088bf87U,
  0xc0092e2dbe4dc595U, 0x401985b9c0282a22U, 0xbf5e18f1405782d6U, 0x404106a13fa37f22U,
  0x3ff98a4a3fc88133U, 0xbf3b3d5d40671d27U, 0x40144634c00031bdU, 0x3ef0f321bf9b541fU,
  0x3fa75b0d3e21e01fU, 0xbff63df8beaa01d0U, 0xbf614e38c04a9850U, 0x3fd6a7613fda5548U,
  0x3fdf1ff7c0235b6eU, 0xbf9853523fb77047U, 0xbfd07cffbeaa0a90U, 0x401e0ae5bf79c127U,
  0x3fefdba9c00589c2U, 0x3ff8f930bfc7ab82U, 0x40228f84c05aedc0U, 0xbfa924153e7eb683U,
  0x405e0707bfb9522fU, 0x3fe418b83e82dae3U, 0xc062f301c02ec84aU, 0x3f899eaebe93483aU,
  0x401c3631bf7e3c95U, 0x4007c86a408239feU, 0xbfd5e16f3f007077U, 0xbf9f87d740488a03U,
  0x3fe766c340719987U, 0xbfd33f5cbfcc2bebU, 0x3fa1d5673fcb459cU, 0x3fd19d35bdc6b5b4U,
  0xbf13755dbe02000aU, 0xbf6b260a3f71f7dcU, 0xbee6c8fa4001fbd7U, 0x3f01cba040079ff1U,
  0x3f9a22d8bdc4b31eU, 0xbdcee83dc0421f9fU, 0x404096a4c047de79U, 0xbfa9624fbf9879d3U,
  0x3eb8b13fbf80b35aU, 0x40460f09c093d08bU, 0x3f6fb5bf403f973aU, 0x4068158abf1676f0U,
  0x401e1a12bf30b595U, 0x3f6c50d8c018660cU, 0x3f2d65a8bfad7767U, 0x3fcb4467bf086935U,
  0xbd681f3440277940U, 0x40923730c05dca47U, 0xbfac809a40178b86U, 0x3e2a7f364001e8feU,
  0xc00189aa40021f56U, 0xc0708550c002af3dU, 0x401feb213ec80e15U, 0xbf96c7633fa99604U,
  0xbfb36a2a3fc0fafdU, 0xbfc59062bc6374dbU, 0xbf60d679becdc653U, 0x3fe63a80bfd77e81U,
  0x406e36bebf0492ddU, 0x3f9e4049bfe1799fU, 0xbdbd95c3be2de280U, 0xbeaa7658400f9accU,
  0xbf6c77f840048676U, 0x4066a99a4029bb8fU, 0xbeaf7e7abe98b59bU, 0x4007d62cbf1256b3U,
  0x3fb03430c023bd9aU, 0x40214767bfa94f3fU, 0xc0b9f943403a8f2fU, 0x3f171963bf4964dbU,
  0xc018fbed40149ce4U, 0x40295f913e04c56bU, 0x401d97753fcd5757U, 0x4023580c3ff9fba7U,
  0x3fab12ec403a5828U, 0x402d1e5bc08214cfU, 0xbe8ff1c8c023bd94U, 0x4008dfa6400e6becU,
  0x407551cb4090c375U, 0xc00b6a693ccb1f34U, 0xc05d597b3f8bbff8U, 0x4062084c3ea4946dU,
  0xc00bcbc3bfcafe94U, 0xbfa26521bfde9a76U, 0xbf8af5d8bf3e7102U, 0x3ff71efebf9736d6U,
  0x3feb86723fb58afeU, 0x3ff37c31bff252ecU, 0x400718afc05cad9cU, 0xbff5e5b74034fe4dU,
  0x3f89061bc0bf0eebU, 0x408fdce3bfcbdebeU, 0xbf6010e54095455cU, 0x401e37cdbfc4b041U,
  0x40399dc13f81a1c0U, 0x3ed71c833f0b36f2U, 0x3f87db55400a85b9U, 0x402f5a57bf9e65f4U,
  0xc02fa2013fcd8dd0U, 0xbfe6d556c00b0585U, 0xbff1b308c037eb1bU, 0x4084df6540242ed6U,
  0xbfcbc51f402bee43U, 0x3ff65495bf4166a9U, 0x406adb6e3fea11ceU, 0xbf9e16a6c0482fd9U,
  0x4056988c404a1ed4U, 0x3ef8d051c023b0e3U, 0x4004757c4051ce2dU, 0x406e7d43c0122338U,
  0xbf467ab23ff5d602U, 0xbfa7e03940589e5cU, 0xbfb8ea6dbf8f46a1U, 0xbe8de765c01b19ffU,
  0x3f9a5dadbfe6a31eU, 0xc045ee55bf2620e5U, 0xc03d293bbf08fbf1U, 0x3e4c83113f9ce2f9U,
  0x3f4d9b06405de2ddU, 0x3fd691efbf4b873fU, 0xbf2e99aa407bddabU, 0x3f1b4522c02f9cd4U,
  0x3fe78327bf85a966U, 0xbfdac1403fe8aa2cU, 0xbf929e30403ce42eU, 0xbfa2ac2ec05c1d0dU,
  0x3f18a86abff3c3d2U, 0x3f1763af3f9181c4U, 0x3efc21f33f926430U, 0xbf956e98408c1551U,
  0x3f9464533f6916eeU, 0xbf3e3e62bf9355eaU, 0xbf7850f8be738bc4U, 0x403916143ffd2412U,
  0x3f06f5d240294712U, 0x402607f03fcaaaf8U, 0x3fa19ec83fa5d266U, 0xbed385e14049926cU,
  0xc006d2ed4019c030U, 0xc03bd2bc3ee7bff9U, 0xbfd30571c0387ba7U, 0xc0bcccaec0046ee9U,
  0xbe5af94cbff92598U, 0x4046c3b4beaaebd7U, 0xbfdb82da402683adU, 0x3fafa8ebbffd7cdeU,
  0xc097d27fbe1cf9b9U, 0x40a189edbf8cf178U, 0x3fcf3241c06a06c5U, 0x409bf2cbc04fd827U,
  0xc01f3e083f58e899U, 0xc00ad3ea3f9a8fa4U, 0x401b7ba6be9ad918U, 0x400655e6c055fbb5U,
  0xbf2053184006486dU, 0xbfada50fc00a1654U, 0xc037cf44bfdb3d95U, 0x3ec70b62c05082faU,
  0xc09e9b9dbe761b1eU, 0x3f3cf5c3bf7ad70eU, 0x401ac478409443feU, 0xbf4799f040a177b3U,
  0x40033efcc050ee53U, 0x3faf21963fe9a787U, 0xc0398b6abf9ab020U, 0xc0aae273bf100af1U,
  0x3fb7bd1fc0495770U, 0xbf2026db3fdb3d0aU, 0x3f60a9c93fd722e7U, 0x3fc05ccdbfb40f9dU,
  0xbf4ca7f94003e5e3U, 0x3fbe1afa3fffb248U, 0x3efcd6b2c06d7b43U, 0x408093b940750870U,
  0xbd31c427403c526dU, 0xbfeede72c02b5cfbU, 0xbfac2d1fc0719525U, 0xbf9550b4be059e74U,
  0x401684dcbf9c3a7cU, 0x3f8389ecc09b5bfeU, 0x400dd3edbf635621U, 0xc00f52f7400a23e3U,
  0x3ffc5354c05aa878U, 0x3fbf78523fa70ca3U, 0x40445158bfb510b7U, 0x3ff9fae73f8feda8U,
  0xbfb092803dbf5dd3U, 0x3e70be85402ca3b3U, 0xbe920d92bf160192U, 0x3ee04b143ff5fb5aU,
  0x40064de93f9608a7U, 0xbf919825bfc0dec6U, 0xbeec90a43f1a3a4cU, 0xbf8517d8c09f97a0U,
  0xbeb8f1063f9b712cU, 0xbf5a11374080b0feU, 0x40846e7dbf0fc9d8U, 0xbf4d3dce3f90b23aU,
  0x3ef08708c01e75f0U, 0xbfce45b8bc873cfbU, 0x4084afaec09c1b33U, 0x3fea768a3fccbbadU,
  0xbfc670aa3f8a9488U, 0x3febe239bf7a43eaU, 0x3e1125e0bdd87fe2U, 0xbff04ac94002348eU,
  0xbee50d6fbd17bdb2U, 0x3fa8143bc04d38f6U, 0xbee116b3bf36092dU, 0x3f8e8fb2bfbbf0acU,
  0xbe7edad63fac63f3U, 0x3fc60a874062a59cU, 0xbfbab8243ebf3076U, 0x40cc7c623f90ac91U,
  0xbf459d26c05853fbU, 0x403b3a0fc02ceb80U, 0x40a46a8ebf9d96bcU, 0xbfcd6de7be9e2c6fU,
  0xbfa839edc0c27c64U, 0xc07846ea3ff009d9U, 0xc0e74bb8c04ec61cU, 0x400812b63f5f255cU,
  0xbfc8e2704044b60fU, 0x3f61dd983f08d5e9U, 0xc02c33ce3ff135f2U, 0x400d7a094093a23cU,
  0xc013e9953fb24c18U, 0x3f0c7052400b796eU, 0xbfe9bcf83fc86819U, 0x407ae0dc402d2412U,
  0x40275dd6405e9190U, 0x3fd8c5fd40960c91U, 0x4014c936c065cf6eU, 0xbee59d1d3feed83eU,
  0x402eb36f3e321fb9U, 0xbf9b5d95401157aeU, 0xbfc2c566be7c9327U, 0xbf4429f7c00d18a4U,
  0x4074bc023f99d72fU, 0xbfaaf2213def2e9dU, 0x40384dbbbf174bafU, 0x3e13e2d5c0ce9635U,
  0xbfc3ad8a4074c549U, 0xbf7a1cfa3f2b7937U, 0xc05c1865bfabcc8bU, 0xbfe7c65ec035b56dU,
  0xbff31060bfe36d3dU, 0xbf316b8f40155c08U, 0x408a6bd3bfdae3fdU, 0x3eddbf32bfdf7616U,
  0x3f8401e93fe1fd3aU, 0x400304dd4017114fU, 0xbfdf0e22bf8b553cU, 0xc03106fdc00b217aU,
  0x3e585699404220e8U, 0x3f43194bbf6031feU, 0x3fc34dff3e9fced1U, 0x402caf74405746d7U,
  0xbf8d78c24044f1e8U, 0x404fa55d402eac3eU, 0x3f443f91be6fe4caU, 0x40022b2040741cc5U,
  0xbf8f8d303f483f98U, 0x3dbd0b023ecd3b76U, 0x3f7843f83f1f39a9U, 0xbffb7d3c4087436cU,
  0x4043d5fd3fc8d231U, 0x3fe0e065c0463a77U, 0x3f1b20593ff4fadbU, 0xc07c435cc0d4a2beU,
  0x4037f66dbf8e16d5U, 0xbdff43d34056d101U, 0xbe9c1429be5f2999U, 0x3f06a4c2bf071232U,
  0xc04331723fdd4dd2U, 0xbf899419bfcfac1eU, 0x4007e768401683bbU, 0x4034328a4040c850U,
  0xc06948bebf71a4b6U, 0x3f801d933e964d29U, 0x3d1c74dcbf85d160U, 0x4013c09e3f839aefU,
  0x3da55b01bfa4b6b2U, 0xbf048ca8bea5eb41U, 0x4022748a3e0f29ccU, 0xbf5a64423e7811b5U,
  0xc07c84d7bff58e8fU, 0x3f1cd249c0172291U, 0x400516a83f860d07U, 0x3ea9d55f3eea0b9aU,
  0xc01554febf7110a8U, 0xc01b15bec03dbc95U, 0x4042e6d63ec77793U, 0xc0494286bf6f2a13U,
  0xbfcbb0cbc02ed0c5U, 0x3eef9e24405a6e88U, 0x401dc80dc009fb01U, 0x400216a7bdaa4d1dU,
  0x404f2e6d3fddb081U, 0x40915f41bfee761dU, 0xbeddfbde3fca8dd7U, 0xbf9a807340661c56U,
  0x402acdcebf054d07U, 0xbf5ff2104004fb51U, 0xbfe553343f298cd3U, 0x3f5573893ffd41faU,
  0x3f838625bfa9762eU, 0xc032d2b7c0015cdeU, 0xbf94edc9bf59bdecU, 0x3ffb6b1c4046e7b5U,
  0x3fb648b3c060563bU, 0x3f9fff50bf3852cdU, 0x401137823e73d42dU, 0x3fd39d223ee6dfc1U,
  0xbfbb7eaf3ebc045fU, 0xc047231c3fe4b2a2U, 0xbf0dca573e185ed9U, 0xbf064c883fd5deddU,
  0x401b92a7beb4cbeaU, 0x3f368d003fda0bbbU, 0x3f3ac95cbf7b6ff1U, 0xc075ca85bebe421dU,
  0xbf228d0b3fde2ebeU, 0x3fb6f2b040b5eebbU, 0x4115a9043f7e0304U, 0xc00a6b49bfe8893fU,
  0xbfd423fc406452dfU, 0xbfb1ad894016607eU, 0x3e2f5e8dbfe401aeU, 0xbedc1bf23f9a9fcdU,
  0x3f35f6a840a22dacU, 0x402fed40c0b1940fU, 0xc0b4384f4032bbfdU, 0x3d5dc4d4bf2386cbU,
  0x3f9561f3c03959efU, 0x3f30b65a3f622ae4U, 0x3d0a97ab3ec5131eU, 0x3f07ba10bdca1fa3U,
  0xc08b35a1bfdfddd2U, 0x3f3d89674064ec5fU, 0xbf85f4d6402d9415U, 0x406754c3bfbf50c8U,
  0x403ddf853f387026U, 0x40297157bf7c3160U, 0x3f59745fbeee1cf7U, 0xbfa3a8223fb42f11U,
  0x3f7f210bc07c960eU, 0x3f17fd3e402d0578U, 0xbfd3e20740842326U, 0x3f553e4dc01ef1d7U,
  0xbebf73c43ff7cf0dU, 0x40ba3d54bee9e47cU, 0x3f576ec74021accfU, 0x3ee5350f3c9e17f9U,
  0xbfa00b1ebec410c6U, 0x40195a444005f00cU, 0xc0206dbb3f909369U, 0x3fb3fed0bfef1ba5U,
  0x40350eaf3f073e3bU, 0x402c28f7404fa7e8U, 0xbe2e7a40bfba9608U, 0xbf924ce1403eb629U,
  0x4098aeb23f1fd3aeU, 0xbf7ff83d3ed82b9aU, 0x3fa61f593f1a48c0U, 0x3f5325da3f948700U,
  0x401f7e643fefeb59U, 0xc009ea1e3ff7c388U, 0xbf1698483f5252c5U, 0x403c7569c017c12bU,
  0x3e1c4eaf4015608aU, 0x3fc5d468c00eda25U, 0xc02938d0bf70cfb2U, 0x40054a8d3e180629U,
  0x3f6146513df98457U, 0xbf71b5f6402f7977U, 0x3e8c333ac0a80cefU, 0x3f9440f7bf8311c1U,
  0x3f874d42401edcdbU, 0x40b1c7aebfa511a6U, 0x3fc0ef6b3e436992U, 0xc009d3b24046d5e8U,
  0xbe2ad09a406f296aU, 0x401dca81c06ab9b0U, 0x4018572cc091fe23U, 0x3f57741cbf209afbU,
  0xc084366cbda081feU, 0x4035443f3fc417d2U, 0xbfff6724bf4d09eeU, 0x3f6dca313fca995fU,
  0xbf27b6833eaa4d4dU, 0x3fb20ea1bff24851U, 0x400809ea40278cdcU, 0x402a6f4d4050dbf9U,
  0x404d4a21bf90aeebU, 0xbf619f214024629bU, 0x3f17626dc02131f3U, 0x3ddb297ebeab4e60U,
  0x3f3168143e3765daU, 0xbed85080401c3ceaU, 0xbf995193c00e341aU, 0xc007c169c067fd72U,
  0x3ff782e64025eb92U, 0xbfc42566bddb7c3dU, 0x407d98b8bf85bb1dU, 0x3fb4e0d7be8edeeaU,
  0x3fdb6853400f2abaU, 0x3f8d4e41401dc395U, 0x3f032f823ceef33aU, 0x401229dcbf4e4a19U,
  0x3f3ff2b1c06aa60bU, 0xc028cd8cbfb7971cU, 0x3f2f8f75c001fc63U, 0xc01dad16bef5c312U,
  0xbe96e3ffc0111153U, 0x4020685fc04af1abU, 0xbd400e87bf26dc4cU, 0xbf528a4bbf8dc5f5U,
  0x3f4b2f8a3e9dbff9U, 0xc0268e4f3fcdb9d6U, 0x4019c744bfc8b789U, 0xbfe03c7d3fcecd48U,
  0xbf03c8e7bfe9eceaU, 0x4007f88cc076aaacU, 0xbfad5d1bc0212099U, 0x3cdc4ad540599457U,
  0xbf47bd42bfce850cU, 0x3f6efa4cbf39ed73U, 0xbf548910bffd2bafU, 0x407dc5d8bfb7836cU,
  0x402fa641c0170b58U, 0xbf45a0e6c09b1be6U, 0x4055987dc03d5596U, 0xc0667a27bc94a10aU,
  0x40629e5cbf9ae888U, 0xc048af57c075c3a3U, 0x3f8c39efbe3b189bU, 0x4037f829c02bfb99U,
  0xbe243172bf13014fU, 0xc03e2fee4037cfbcU, 0xc01346543f0b8869U, 0xbf37e8263e913f62U,
  0x4084a1a9beb3d00aU, 0x3f6377eac036900bU, 0xbfe13443bf7dd95eU, 0xc0545b06406e106cU,
  0xbf816fa4be6f19d0U, 0x3f2c964cc00ee866U, 0x3fd53a504034b89aU, 0x3fa0057fbf8763ecU,
  0x40402f703f484c1bU, 0x3c4853393fc473e5U, 0xc01f83e93fa19916U, 0xbfdedcf4bfe019efU,
  0x40052534bf60f6c9U, 0xbc0a9e06401c32bdU, 0x4003ea95c00b4f97U, 0xbf1b63f5401ac937U,
  0x3f4032f4bf85ff4dU, 0xbffcd115bfa232beU, 0xbfddf1febebefda0U, 0x40001f81bf31e38fU,
  0xbe2c2cb240818948U, 0xbfcf9dd6bee82ad8U, 0x402262abbf29f327U, 0x404b58353f43e1d5U,
  0xbe452486400c7e10U, 0xbfc007413f3debf1U, 0xbfeca227bf812006U, 0x3ffea561bfbf7c9cU,
  0xc01b40a13f01b1ceU, 0x403117f5be0f6f83U, 0x3fb39821bfb7a0e0U, 0x3ec84bca3f5294e7U,
  0xc08d37c2bfb7f185U, 0x402f9fc7bf930d91U, 0x4091d7323f6162e0U, 0x40030cb1bf57b57dU,
  0xc0799203bf216495U, 0x40496f9d3f97804fU, 0xbebe8afa404c19deU, 0xbf782953bedd6a02U,
  0xc072c3113d79c846U, 0x3f4a876abe89e2ebU, 0xc054d1edbfe938abU, 0x3f5a44bd4071ead2U,
  0x3fe70afebfd3a791U, 0x3f75d5ddbf2ae5e8U, 0xc032d6cb3dcf0c51U, 0xbf37972d3ed46c17U,
  0xbea63bf1bf869189U, 0xbf2a3026c0100cf0U, 0x3f8541d6401c1f2aU, 0x3f9a665f3fb381b9U,
  0x3fc3a20dc06839f0U, 0xc090c1613e82869eU, 0xc0286765bff37047U, 0xbe9033443f1e5e76U,
  0x3fe9fc83bf1b05d5U, 0x3f00c4ddc01a491fU, 0x3f39308ec04cb9e8U, 0xc01dd339c015b570U,
  0x3f34d6bbbfdfd2cbU, 0x3f878e02bf7cd99bU, 0xbf97b5223f9928a5U, 0xbf756c87c0163166U,
  0x402ff2d23ee3112dU, 0xc0416d093f87de6dU, 0x4000b47fc02695c7U, 0xc0111ab1bf2a8035U,
  0xbfe8c8fe40867e21U, 0xbf823c253f2906d1U, 0x3fe168b83fcf0b72U, 0xbf09dd79bf4cd019U,
  0x4042c7694025fcebU, 0x3f7bc76ac00012d8U, 0x3f013723bfc7e00bU, 0xbf3d23013f926289U,
  0xbc8ec24f3fafb246U, 0x3fd1863f3ddcbd26U, 0x3fd03718c029027bU, 0x405f081b40158f95U,
  0x3f4d2a3dc012eeb7U, 0x4009699a3e005d06U, 0x401329883ddb1bc4U, 0x402b1cce405641c9U,
  0x4076512f3e40f1aeU, 0xbf21f604bf31635bU, 0x4001cbf9bed13a40U, 0xbfd439a040709526U,
  0x3f8e935e400c58b8U, 0x409e132a40023545U, 0xc0893428c02ed092U, 0xbfacd77f400105dbU,
  0x3f39d2e8bf339266U, 0x3f7ba8bf401850d3U, 0x3f4a5f764067114dU, 0x403462883e980700U,
  0xc0021c45bfcac52dU, 0xbeba890ac0089f5dU, 0x3f818178c0926c13U, 0x4000395ebfac2798U,
  0xc0442d92bf603d2cU, 0x3e56ee873f07723cU, 0x409701783fc7c016U, 0x4081b0193f6a936eU,
  0xbe8b5bf3409ccb0bU, 0x4027f1be403dd32bU, 0x4009ba3d3f130865U, 0xc03573193fb0fa86U,
  0xbfd6611e3fce4ac4U, 0x3f3d11d540ab1438U, 0x3f64da98bf199aa0U, 0xbf5de96f407a6321U,
  0x403c7cd6402dbe5eU, 0x40335edbbe6ff353U, 0x3f3e1b073f492a39U, 0xbf2ae08d3f840389U,
  0x408ced0d4016b038U, 0x40f266073fb00decU, 0xc05a2e3cbff8b52dU, 0x3f817f5bc00f5bebU,
  0xbe94d3553f8393b6U, 0xbee1961d3f272e1fU, 0xbfb86c6cbf49e0e3U, 0x3fc5125bbf91e8caU,
  0xbf30d2bc3eca7343U, 0x3ffe5a93401c0ea4U, 0xc0301c613e96e454U, 0xc014ec9640189247U,
  0x3edcd41dbf9277b3U, 0x3f93fd463fc3bfd4U, 0xbf3ec085bf6ddd7eU, 0x3fc2a4f240903f24U,
  0xbf8e7b7d3ce33552U, 0xbf8335da4006043dU, 0x3f47c10e3fd0123cU, 0x4032624ac0c34ce1U,
  0xbe5bccef3fdcd5fbU, 0x402814fc4094f038U, 0x3f9ad98a3ffa8bf5U, 0x3f177d8dbf1be7c5U,
  0xbf32c9124043ec4fU, 0x3f88e2d240025813U, 0x4018ccd2c034dcacU, 0x3fcd290a3f68f3f6U,
  0x4067a78d3fe218a0U, 0xbf025e07be31f6aaU, 0xbf0d05f1402a8056U, 0x3f92feaebfbe6bfeU,
  0xbfd89b3240e00981U, 0xbfa98cad3fad4e8fU, 0xbf9a709c400c46c7U, 0xbfd830da3fcdcc49U,
  0xc01280863fa1c2a8U, 0x4048fdc73f710096U, 0xbf61419540bc1336U, 0x4067e1dfbebc434aU,
  0x405548d43ee9bc85U, 0x3fde4ec9401b569aU, 0x4025dccf3fb32eceU, 0xbfd5f4e2bf049802U,
  0xbe899decc04f3370U, 0xc01a2bc03fea954dU, 0xc04bb9a240cf3ac9U, 0x40116710bf652f5eU,
  0xbfc6f8e63f22249bU, 0x3f4eb1213fe448a8U, 0xbfb4fb213f336289U, 0x4069c71cc0697360U,
  0xc0ae5a853db1f6b9U, 0xbf264af4404c7eabU, 0xc0ab6392bf41c92dU, 0x40480964c0044360U,
  0xbf92199bbfabdc6cU, 0x3f45d0cec022e860U, 0x3e952f27bf7eb91bU, 0xbfd4f9483fbad608U,
  0xbe56f80f3f883ef4U, 0xbf2faddbc02df876U, 0xbf2f3710402b980dU, 0x4013cec53f9e718dU,
  0x3f708cf73fd60544U, 0x407f64203dbecdfdU, 0x402b8502bf1a228eU, 0xbf16057ec00d8c2aU,
  0x4027543f406607ebU, 0x3e4b92b03f83335eU, 0xbe8eac12c063d8a6U, 0xbd5b7951c035069eU,
  0x4008c5653f89fc21U, 0x4042fcf3c02bc472U, 0x3fa2589040c61d6bU, 0x3fcdb80c40877337U,
  0x408949efbf81c029U, 0x3fe8b834408d2379U, 0x3f1a0739bee6b1d1U, 0x402aab67c01e2e83U,
  0xc024597d4015005aU, 0x3fb192cf408ecb60U, 0x3fb830f1bfae9cc9U, 0xc001d3fd409221a5U,
  0xbf8d4e67bee93bfdU, 0xbf159b2a3f97e89aU, 0x407c9a46bdc16646U, 0xbefff022bfe3d0acU,
  0xbf267469409bfa03U, 0x3f6104613ec54da1U, 0xc019baa7c02f7f67U, 0x405733673f0f0b8bU,
  0xbda6b23a3fffb2cfU, 0x400e3794bf013143U, 0xbfaf14323d62c184U, 0x404c233bbffaed89U,
  0xbfc2a0cbc070bfe5U, 0x3ead4848bf9636a7U, 0x4010580ebf5a6013U, 0x3f380c084007f485U,
  0xbed31d69c004f2a7U, 0x401c0794bfb8b69dU, 0xc07375bb3a8cd7d6U, 0x3f91ca66be597d2dU,
  0x3f401e133f4dad11U, 0x3f02c740bf270ce4U, 0xbe964704bf653215U, 0x40054e8bbffc5b2cU,
  0xbf0c8d403f371745U, 0x402b15233fbef53aU, 0x400028fa4012a47aU, 0x4081a26c3f0f3fceU,
  0xbf28146d40801dd6U, 0x3edbbcc3bfa4230fU, 0xc063e14ebf87f1deU, 0xc004a8d64019ba54U,
  0x3f4929593f2f0384U, 0xc038a6ce401f549bU, 0xc0482b39bf370226U, 0xbfdb5602bf67bc79U,
  0xbfcf6aa5400c0670U, 0x3fd01da04056f23cU, 0xbea1cc914097e036U, 0x3f2887dc3f6de566U,
  0x3ed1ba1b4003d3d8U, 0x3eb17f573fb98a77U, 0x40261bba3f3172ddU, 0x3eaf7e743fad46edU,
  0x404e9554402e6e73U, 0xc033c3d540acaab4U, 0x3d8a58213fcfe3c3U, 0xbf049e5cbef3e124U,
  0x3fbc200140217697U, 0x3fcccce9c00949a4U, 0xbe757f9ec06db800U, 0xbfa11be33ea8f045U,
  0x3e795f07c001cd61U, 0xc05c6e9dbf3b033fU, 0x406004a93f0b3c89U, 0x3eb2c672bf7feeffU,
  0xbf779a59be910547U, 0xc09a42fec0139afaU, 0x403a97853e60f8caU, 0x4007c203c0806076U,
  0x3fbf8091bf472aabU, 0x3ffe965e4029d05eU, 0xbef38c34400f2f24U, 0xc08f26eabf90eae9U,
  0x3f08acfe3eaeaa95U, 0x40219864401973d9U, 0x401616bb3f4cfa0cU, 0xc053e18dbe446733U,
  0xc011a3924022c23dU, 0xbf5b809b3ed66aedU, 0xc0055c12c003d078U, 0xbf2a50303e48fb4aU,
  0xc0029b60400fb3a1U, 0x405400ffc050a1faU, 0xbefa61bb3fecfe23U, 0xbf275b0040533186U,
  0x3f92b7653fb7f973U, 0xbdc26a16bfd43e2eU, 0x401ed18d3d93c79fU, 0x3f9f4e27c042f546U,
  0xbfce2b834031f714U, 0x40218291c04a560cU, 0x40580fc0400233d1U, 0x40935942bf3cb1f5U,
  0xbf330c2bbecf4660U, 0x3f2b4aec3ea9393bU, 0xbf15332f3eca2d8bU, 0xbf5ba14abd836fc1U,
  0xc09e6e8a3ca4a3e2U, 0x3f84e2b1bf5d516eU, 0x3fca64e740c5fb10U, 0xbfdbbc663f2b3d3aU,
  0x3f3d8626406f7878U, 0x407fa6d93f537f64U, 0xbfe65105402e1046U, 0xc0792059bf90b88eU,
  0x3e58c3503fc68773U, 0x4020d78f3fc75bdcU, 0x401a9ebec016d392U, 0xbed0886a3f92a4ddU,
  0xbf56cc094013298dU, 0x409b6b18405bf472U, 0xbf6c92a5404895d5U, 0x3ff492bd40840051U,
  0x40499bd0be183b95U, 0x3e53d2a93feba42cU, 0xc028acd5bdbd714bU, 0xc015ea96406137dbU,
  0x3fd2c76e3fb021c8U, 0xbf94442fc02e0992U, 0x3ea32a16c05e6447U, 0x40228b6cbeca8f1aU,
  0xc046bf6e3ff21067U, 0xbf8524213f2892f4U, 0xbf8fa07fc0350480U, 0x405da8d3bf59eeaeU,
  0xc031865f3fdb3481U, 0xbf1288853fad1dd7U, 0xbfc8573dc0418645U, 0x3f72e46ac050270cU,
  0xbfd222564051c1ffU, 0x3ff1942dbf9d8a7eU, 0x400681a740194fa5U, 0x403846d9c00016e0U,
  0x3f331b4ebea667a8U, 0x408850f0c0527c0aU, 0x403b7162bfe41b57U, 0xc02752383f1ad939U,
  0x3d910ae1bfd7835dU, 0x405d7c1a3fce36fcU, 0x3f4691b93feaddaaU, 0xc0101529402f17c5U,
  0xbfde79d23fbc9340U, 0xbfe43270bf480bb8U, 0x40883b763dc74bbfU, 0xc04729c5405b07edU,
  0xc022f30c3f8bbb7fU, 0x3fe673d03f55a401U, 0xc0013a8abe4cf83eU, 0x3ff26bbf40440e0eU,
  0x404b2e333f7ff547U, 0xc064e652c09994bbU, 0xbf77cf49c0339a8eU, 0x3f674dc4bfb52732U,
  0x4027bf0cc0178e6bU, 0xbfd7c997c031223cU, 0xbf15c7533ea320e1U, 0x409039aec06649fbU,
  0x3eecac3ebec96a37U, 0x3f4e6edd4016878dU, 0x3eb8eb80bfac1d52U, 0xbc4526c6402779a8U,
  0x400690aa40234cd0U, 0xc0282c9dc0362a9dU, 0xc07328e3c08ddbeaU, 0xbfd8a974c0680bc5U,
  0x4018b9fdc0153883U, 0x3ff4ab1ebfb729edU, 0xbf6edb483f18631fU, 0xbf2b477940055115U,
  0xbff5be773e981187U, 0xc0afff22c0227e40U, 0x3f15c73c3fd45626U, 0xbe937a083f17ea57U,
  0xbeacb52bc04a259cU, 0xbfeef626bf1761deU, 0x3f73c57abf89b7cbU, 0xc00779d3bffaa28dU,
  0xbdc70bc8be011177U, 0xbf4a3a0f3e5463d9U, 0xbf3143d8c0683ba0U, 0x403e8374bfcf157cU,
  0xbffeda903dcbcd27U, 0xbdbc447ac00e7d01U, 0xbf00d40cc010e56aU, 0xbfc05672be0397d7U,
  0x3ff6963c3f8187a4U, 0xbfaab8c7404eb91dU, 0xbecfc5b1c092036aU, 0x40a5f64b3ee21755U,
  0x40710e6a3fe3b0faU, 0x40a9a32bbe93813cU, 0xc0338b7440104180U, 0x4003ca173f862c29U,
  0xbfb3ba48bfdaae31U, 0xc05479d0bcfd6684U, 0xbf38132d3f7e671eU, 0xbf2103fb4007da6fU,
  0xbde690613fa208b9U, 0x40274556c09333c9U, 0x3f7477f1c010cc72U, 0x3f9bda67c0146168U,
  0xbf2f9feabfb2f047U, 0xc019538a40905578U, 0xbf8816cb40291fc6U, 0xc01264253fe848b4U,
  0xc01ac9943ef97d18U, 0xbe7a0274c09742e2U, 0x40823986bff49c6cU, 0x3f62d61b3f582649U,
  0x3d683e6c400cd3e7U, 0xc0712d3fc004082dU, 0xc084effd3fd77debU, 0xbeb6a18ebfe079e2U,
  0x401aa609c0a732a6U, 0xc0222238bf782406U, 0xc051a34e3f5a090bU, 0xbe062263400e8facU,
  0xbe015ff0c0380f64U, 0xbeee56cdc004c384U, 0x3ed011fdbf7ffc0bU, 0x4062d805bf8a20baU,
  0x3fc9cd6140679b16U, 0xbeb5310a3e569e9bU, 0x3f02c25a3f8d0f8cU, 0x3f07dee440187525U,
  0x3f2b685cc08906faU, 0x3fde7b9c3f613b87U, 0xc05e99514043c8a4U, 0xbfc8dff04011d5cdU,
  0x3f4460f93e982d5dU, 0xbfee9f823e0cd8d0U, 0x3f83cc0d3f9b6be6U, 0x3f4103ee406d47a9U,
  0x3f3db093be83add2U, 0xc0309854404dcaf3U, 0xbf0f07bcc019f9dfU, 0x4052dac54010a725U,
  0x3fd2fa323f5fadc7U, 0x3f7af722408de507U, 0xc01e2dba40075df0U, 0x3eeb42a23fa4d605U,
  0x4089193cbfde3ba6U, 0xbef84ddcbf9c8b9bU, 0xbfa39da63f0972a7U, 0x3f0b8d6c40437e60U,
  0x3f9adfbe401ef5abU, 0x3f122609bf3a06faU, 0xbfbf33d23fab888cU, 0x3f396514c03fd885U,
  0xbfeac8304091f312U, 0x40046fa6bfedb3acU, 0x3faeaac1bfb57bd3U, 0x3fd5f4efbeacf21bU,
  0xc01d79f2407939abU, 0xbf13cb37bf389386U, 0xbfdbac07c09dab6eU, 0xbea4846ac056f9e4U,
  0xbecd0179c02a4d36U, 0x3fc88263c03cdb5aU, 0xbf011b463e22649fU, 0xc0718441bff290edU,
  0xc051f0ca3f4f21a5U, 0xbf8fbe23c0742e1aU, 0x3f15039bbffc1122U, 0xbf89cdb9c00c67bfU,
  0x3fad2e77403e8626U, 0x3fbb60094041e700U, 0xc0396ec24018592eU, 0xbf03a15c3f81f1b8U,
  0x405f87b0beb075f2U, 0x3fac18eec02030b5U, 0xc05a2fae3f0e0df1U, 0x402662a5bf059290U,
  0xbfd3a8ce401b88c9U, 0x4085230bbfaf331dU, 0xc0045431bf59a573U, 0x3fc2d487407cf7f7U,
  0xc018ec1e3f25275bU, 0x406b40a3bf679308U, 0x3fd01bea3fb4ac39U, 0xbfdc275c405a5012U,
  0x400cf5b43ebfa3b1U, 0xbff1d4ec403dd122U, 0x3ed82e2fbf3a492fU, 0x404b7c6abd82003fU,
  0x3fb0020b3f44e379U, 0xc007cc86c0377e91U, 0xbf523b713fe7211eU, 0x3f1ac9e4be639e9bU,
  0xbe4f28a43f1c52f0U, 0xbf1dc614bf95cd3dU, 0xbfa07e72bf919a88U, 0x3d3de9003f1105f1U,
  0xc04195263ecc2b4aU, 0xbfee14bc3b4df232U, 0xc0b1c5c03f4fb01bU, 0xbec17f5e402c257aU,
  0xbfe7db40bf6f3b69U, 0xc0833dfd3e0df508U, 0xbfe5e6e2405e7a42U, 0x3e7dbd85400f36d5U,
  0xbfd82496bfb20981U, 0xbf240f1e4095578cU, 0x3fab9382c03413b4U, 0xc043228fbee3278bU,
  0x3fbfc4893fa9b59cU, 0xc0252845bf235b5aU, 0x3f922a04bfd9659eU, 0x3e1f5752c04e164dU,
  0x408e26b3c01e69b1U, 0xbdf6cd83400e1ecfU, 0x401b9046bf8c7623U, 0xbecc221f40135bedU,
  0xbfdeac243fa974d7U, 0xbf6239ddc09920beU, 0xbe8506c73f8e8f89U, 0xbf02d7dabcbda2c8U,
  0x3fbdcfb5405630b0U, 0xbe0c7fa83fb416f8U, 0x403b26aa3f63ed30U, 0x3f538a203f913aa5U,
  0xbf583dcfbf7736e1U, 0x4012b9b5bf10e8d8U, 0xbfbee7d43d73af6dU, 0x3fd52164bfff41d3U,
  0xbf4a33a73fe1647dU, 0x403b0a81bfcc60fcU, 0xbf2d07793fcdba40U, 0xbfa109c740182bb8U,
  0xbf02a4d8c008ce71U, 0xbf97de25c09ddf94U, 0xbe8017ab3fb94ebfU, 0x3f31d1d03f72e279U,
  0x3f07c4d940483428U, 0x3d7192edc054fcaeU, 0xc0251026be9bfd67U, 0xbecd1a4e3f60f886U,
  0x3ec6b9683f1bd972U, 0x3eaff59dc012e0b4U, 0x4050ebc0bff2a50bU, 0x3f0c0e04bee0b36bU,
  0xc05978e54023df56U, 0xc0243e8fbf8bef46U, 0xc024aec93f59687dU, 0xc061e6864037ad5aU,
  0xbf69c889bf1a21bcU, 0xbf848197bfa2b1eeU, 0x400c3d29c048cb90U, 0x4071c67d3e98f0ceU,
  0x403f0511c015504eU, 0x3fb002e0bfb5c083U, 0x3fb222f0c0713370U, 0xc00d9854407f32c4U,
  0xbfc68dc73cc0f964U, 0x3f670e3640110f7fU, 0xc00598d94045b48fU, 0xbff0467b3f887edeU,
  0x3fdf5a3c408b2ed2U, 0x3d8e6186bfe14aecU, 0x400a65d0bf91bc11U, 0xbfc3de9f3f825d3eU,
  0x405b21eebea97628U, 0xc06011a7bff69470U, 0x3da8b4e6401fce86U, 0xc077d71b40370618U,
  0x3fcd54744073ead0U, 0x3f8cfc73bf833e3eU, 0xc072ba28c01e8472U, 0x3de9b180bf322f18U,
  0x3d4d31054014ae1fU, 0x3f4876a23edece48U, 0x409ae705bc1341c8U, 0xc05686fbbfc4742aU,
  0x40041de83ddbdab3U, 0x4084bac2400c4ffcU, 0xbeed32494019437eU, 0x3f102e7f3fd6961dU,
  0xbfb659ea4009bc7bU, 0xbbf669b23e5bfa8dU, 0xbf909611bf9a7220U, 0xbf15dcda3fa61584U,
  0x40838ac93ecf8535U, 0xbfb09695bfb57a2bU, 0x406143dc405c791aU, 0xbf220af2c064dd40U,
  0xbfa7cb2d40b85b07U, 0x402c7c7b3f7fa7f5U, 0xbf61000ac0213035U, 0x3fc5237dbfecb9c3U,
  0xbf91d8713fd91136U, 0xc04e59bfbee6995eU, 0x3f7116d5c0930a26U, 0xbef0ca0b4035bd68U,
  0xc01d5e74bf9bab11U, 0xbf45a43b3fd31554U, 0xc040fee83ed63d31U, 0xbf6d7c06c00f93e4U,
  0xbfee16aabf6e57a8U, 0x3f4d729f3ffad31cU, 0xc0521e123f30d2e3U, 0xbf75d16fbf9d42c5U,
  0xbe245cfbc015591eU, 0x3f835be33e60f6e9U, 0xbfe289a83f87c921U, 0xc0614825c08ddf95U,
  0x3e8ae83dbefa84a2U, 0x3f181658401d1d3eU, 0x3db72af7bf7204bcU, 0x400b0000bf0f3da9U,
  0xbf97308ec0747d27U, 0x4077e9cf3f96447eU, 0x3f8ab8263f5586c0U, 0x4049a10a3f668087U,
  0xc02bea323fbe8c37U, 0xc09968703f91be8bU, 0xc0212aabbff4242bU, 0xbff95c0bc01efaf2U,
  0xc0036d563d84a074U, 0xbfedcd46bfbef4b4U, 0xbfc99931be01d4ebU, 0xbf168f0ebd58d1eaU,
  0x3f21fd593f9a6504U, 0x3f0b0fc1c006cf63U, 0xc0b2d8e14065b548U, 0x402d9357c0011f3dU,
  0x3f6ee7a03faf8ceaU, 0x3fe394fb4051d1ecU, 0xbfd4d825c0572d6bU, 0x3fa7b39b3fbee2d4U,
  0x3f1e3dccc09c9f21U, 0xc01a4ce840849a03U, 0x408011f7409c7c61U, 0xc014aaba3f6a294fU,
  0x3ff8b73d3ef5ae49U, 0xbec4292ebf347c87U, 0x3fa685dfc021ac0eU, 0x3fc9e35d3f741efcU,
  0xbde93a2bbfa83c62U, 0xc0a7f8f0400701ccU, 0x3f6a2c963fccd5d4U, 0xbeb39a543f96f55eU,
  0x3eacd32a3f76eabfU, 0xc08a953c3d501897U, 0x3f81f9ac3f15acf2U, 0x3f9ecf3bbfc1fcb7U,
  0x4009c4f3c0518a3cU, 0x408bf50dbff7401bU, 0xc008bedbc00f11f9U, 0x4012352940666e68U,
  0xc0023aa4bec73fc6U, 0xc04f2178c089d28eU, 0x3e1c4b57bfb57296U, 0x3ebf0dcc4053a488U,
  0xbf21e9aec0308626U, 0x3e6318143f4e26bdU, 0xbf92b0c3c00a7486U, 0xc0888ef3c00d6ffaU,
  0xbfc1c264bfda1426U, 0xc02f61583fd8d902U, 0xbf2a19683feef449U, 0x403dd7d8bfc45939U,
  0xbf7eda593fcd38bbU, 0xbeb39348c01c19c3U, 0xbfe793c1c001cb1aU, 0xbf9e70e3bfc06eafU,
  0xc0132427bff164d8U, 0xbf9c3883c018fb3bU, 0xc03b4896bf648ac1U, 0xc057468ac00c068eU,
  0xbfa53a75bfe7247cU, 0x3f249e113ef9ab23U, 0x3f5b37733f64f409U, 0x4039edc13fc56f44U,
  0x3fc7c5a9bfcd31d7U, 0xc0c151454094bc7bU, 0x3f039ec7400d854bU, 0xbef0cb283f6b6624U,
  0x400a2ed2c0239f5aU, 0xbe87b9f4bf2ae2ddU, 0xc0a112713fc35689U, 0xc0584c2740060f27U,
  0xbec35d63bf0c7064U, 0xbf050a54c0217b17U, 0xc1085674401fd234U, 0x3fdd1e49c0303ff5U,
  0x403bb95abfbd04abU, 0x404eff8dc02fe91dU, 0x3f9b707c3f2ce928U, 0xbf80cb1fc04748dfU,
  0xbe9c8732bf0f73a0U, 0xc000e521406abd22U, 0x402238493e8ba51aU, 0x4084b5f63e4b8c28U,
  0xc01c4ea3408a02ecU, 0xc01afa72c0440221U, 0x3f076286bfbd1afbU, 0xbf2f79493f825229U,
  0x4037e981bf75f8f9U, 0xbf024027bf857e61U, 0x4000574fbde1ec14U, 0x40463c6cbd39b28aU,
  0x404907a04043968cU, 0x409d699dbfad26a0U, 0x4056bc06bf282da3U, 0xbf08adf2be78b9a9U,
  0xbf5b840b408a3570U, 0xbfe8c6c1c00908f2U, 0xc039dce23f66e321U, 0x3dd6b528c012eaafU,
  0xbfdcbc453fc67646U, 0x40067dd53f95b633U, 0xbfed7e06bfa41241U, 0x3dd6de6f404b6c48U,
  0x402c15fc40685128U, 0x4046f184bef96453U, 0xbfa691fd3ed7f18aU, 0xc07c1fc3c08b5010U,
  0xbf9882cd40215078U, 0x3f4988433ff9d3eeU, 0x4038612fbeb359f5U, 0x4049fae74019ed9cU,
  0x405ed5babf8c1193U, 0x4067b9cc405285e8U, 0x3e0a38d7bf948b51U, 0xbefa1a33bcb8cd47U,
  0x403e5459bf9553a9U, 0x3fdcecc5bffe0e30U, 0xc060edc5bfe9d3deU, 0xc028c743c051a12bU,
  0xbfcbc782bf9fbe2cU, 0xc00758343f6be184U, 0x402c8abcbff4531fU, 0x4007dbe93f8293f0U,
  0x409fb5303ef2e003U, 0xc067656d401e37e1U, 0xc0118babbdf9d030U, 0xbf6dfc99bf531767U,
  0x4018e26ac016b7cdU, 0x40c59a22bfd517adU, 0xc00db5c0403c0578U, 0x3ec271d73ff58201U,
  0xbf3335a2bfe37df5U, 0xbfcddbe440522acbU, 0x3f3c50ccbf1a3789U, 0xbf685baf3fbd4525U,
  0x3f23443fbf407dbbU, 0xbf9d2689bf6adc84U, 0xbf3f86b4bf6e1deeU, 0xbe9385aebf9504c2U,
  0x3f42f6b14011d87cU, 0xc00b4d3bc092477dU, 0x3f6b07fa408860acU, 0xbe1081d8409d38edU,
  0xbf8c8c9b3f64c46bU, 0x40466643c07cab23U, 0xc04d2331bf831e00U, 0x3e037ece3f738a86U,
  0x3fb2242c3ff04643U, 0x3ff4506c40ba5b55U, 0x401fac84401888bcU, 0xbfce9ecb405bf72bU,
  0xbea2279cbecce4ddU, 0xbfc7700dbf849ec2U, 0x3ecc05f240730df7U, 0x4009ae9c408b3eb7U,
  0xbf9111b23fc3f69eU, 0x40f0cbe6bcebcfddU, 0x3ff92783c047ca06U, 0xbd7a07adc069e08dU,
  0x40044eaf3f8c194cU, 0xc03106cec0cd62b9U, 0xc008fb61c0388acbU, 0x3d036853c009f1a0U,
  0xbf8c1f3cc08bfbc7U, 0xc002f7bec012af1bU, 0x408ab772bf696471U, 0xbfe32063403397d0U,
  0x3f844d59bf9da762U, 0xc0aad073c065369bU, 0x3f9153f13ec5f217U, 0xc0824cbfbf8ef066U,
  0xbff8e4e1beefca6cU, 0xc03dcbac3f2e3971U, 0xbee2b3babf920715U, 0xc0218a96c07269efU,
  0xc00610bd40117b4aU, 0xbf8a66b1c0921569U, 0xbff610f3404687e6U, 0x406493a63fe1dd1aU,
  0x3f10aa7bbf14373cU, 0xbff85af6c0502a93U, 0xbcdba3f9bd82ecb8U, 0xbfbd86a23fa0bf44U,
  0xc0263ff540abd9a0U, 0x3faedb78bef9e01cU, 0x3f93e819be4f163dU, 0xbeb156a93f008be1U,
  0x3fad659a3f9cac16U, 0x3fec03123fa40112U, 0xbe9ad5133f9d3912U, 0xbff6370dbf85b656U,
  0xbff66ab93f06e96eU, 0xc09c59f2bec07527U, 0xc00e68314058cbe7U, 0x40ee6319c0131890U,
  0xc00ad41bbf9590d5U, 0xbfe3b39f3ed71925U, 0xbf62f075400d597cU, 0x3f23ea0c40b067c7U,
  0xc0b1dfc5c092f53cU, 0xbe9845f93d876efeU, 0x402b4b95c0821c4eU, 0xc02968c9beae1524U,
  0xc0542af84080f531U, 0xbfa712f9c0027e7bU, 0x3f27bc0fbfec2040U, 0xbfe51fcd40028cd6U,
  0xc07595fac0118e54U, 0xbf8a1e8f40432c62U, 0x4011a050bfed2a1fU, 0x40bfa6843e5b3be2U,
  0x401abfd340d39671U, 0x408263e9409fc4bbU, 0x401754d34016dcc8U, 0x3e446bca3f064c08U,
  0x407a70543ef1d21bU, 0x3f3c24afbfdd4cb9U, 0x400d7fe23e564d6eU, 0xc01faaf0be1ba3e4U,
  0xc024bdce4038e05cU, 0xc002a3a9bf4d52b5U, 0x3f0c0c833e3304acU, 0xbf674f0bc0001e16U,
  0x4008582e40a84134U, 0x402a68893fd4abc1U, 0x3c98f689bf4af172U, 0x40265d2d3ff09d9aU,
  0xbed76610bf97f615U, 0x3fe84f7d3ffc6b02U, 0x3fc140733f540305U, 0x3f208b51404f8274U,
  0x40635c05404b91a0U, 0x40959c13407743fbU, 0xbfae9da9403f17bfU, 0xc042ac09beafa8c3U,
  0x3f308d53401f35e5U, 0x4042bed4bf517facU, 0x40237e8940203b3cU, 0xc002f902402d8bddU,
  0x3f874c383efc1df0U, 0xbf4bd20b3f9d41ffU, 0xbe8ce2113e847dc4U, 0x3e553bd3bf68c5b5U,
  0x4019caea400bbd41U, 0xc0571360bfa4e9a8U, 0x4068b0febe66c3d5U, 0x3fb4ddf8bf8361a7U,
  0x3f2efb36c011949bU, 0xbfaae2f3407a87efU, 0x401159c9405fd6f4U, 0x4069f487400d05f3U,
  0x3c6b332cbfcf6ae3U, 0xc00097a440a38f56U, 0x3f6e2b623f81a5f7U, 0x400c0c7d3f079348U,
  0x406b6553400f03f4U, 0x3f867147bedec0dfU, 0x402c68b1bfe7a3e2U, 0xc02a866bbe001ac2U,
  0xc04446f7bf29325eU, 0x3f4d5b14404880cdU, 0x400ee0a0bdd41c1aU, 0xbfc3f8d43f7bb5f1U,
  0x3ef7648abf1699efU, 0xbf214869bf1f30efU, 0x3d939c243ff65a12U, 0xbe92c50cbf4f8e0dU,
  0xbe2ed72a402bdecbU, 0x3e027434bfbc92e5U, 0x3ee5d6ce3e292ed8U, 0x400be8e8402f94a5U,
  0xbe832b19c000b660U, 0xc05325d9408bf116U, 0x405860da4059cc8eU, 0x3fdc7f7c3f3eef62U,
  0x40439d35404113daU, 0x3f9a8d444095334aU, 0xbf56872dc083c6f5U, 0xc03663683ec83c26U,
  0x4014539740150866U, 0x40525545beb88437U, 0x3fed12583dacf27cU, 0xbfeaf363bef42fbeU,
  0x3fb3fec03f0afadaU, 0x400e6ee44028b425U, 0xc043e82a3f918174U, 0xbfbc31f6bff16f2bU,
  0xc030cf173ec7e6a1U, 0x3ff39e30c0231cd4U, 0xbe8e9f10bf5fa33cU, 0xbeb323473f969ebcU,
  0xbfd94702bf935670U, 0xc06ba8d6bce3a123U, 0x401687c6bfa6d1dbU, 0xc052669cbfc377eeU,
  0xc01fc40c3f3f19d4U, 0x404d4457403245f0U, 0x4012faaa3fef0ab4U, 0x40180694bfab7f02U,
  0x3fe63a7a3e4fada0U, 0x3fabbabe3fddc9e9U, 0xbf9048093ff1f924U, 0xbfebc0c53f7b5c3aU,
  0xc002561e3f6c0f5cU, 0xbe7834fc407a36c5U, 0xc08df92ac023cba5U, 0x4073d5e33f9a337cU,
  0xbffa2d723f9c0bccU, 0x3f9e54423f8f47f4U, 0x3fe6b65b3f96dfdfU, 0xbfabae85becf080cU,
  0xbf07f0723f607c21U, 0xc049822e4036b4a5U, 0x402ee994befff9f4U, 0x401699cabfd96568U,
  0x406e78cc3e7198a3U, 0x3f5519484059ce69U, 0xc0046c173eae59f5U, 0xbf6eadc1401bebb7U,
  0x404e43c04095027bU, 0xbfb3577bbff1f525U, 0x401891b53fdd41b7U, 0x3d9849ddc016f5d9U,
  0xbf9890ca3f9519f1U, 0xbf8e594f404821cbU, 0x406ade0dbfb35635U, 0x40021e2ac01c8571U,
  0xbf63839f403302ccU, 0x40633d1740657613U, 0x404a3925c063301dU, 0xbf44f2a9bfd26c36U,
  0xbe1e6fcbbfa52965U, 0x3ee323c9401c43a0U, 0x3fe9f731c001ee7eU, 0x4062ad67c0394a09U,
  0xbfe729f2406650e3U, 0xbf1d37fbc0424707U, 0x3fbf6629bf86bc7eU, 0xc0ab3ca4bf10968dU,
  0xc0552f943eace754U, 0xbf6ab2d9bf78641fU, 0x3f0dd4da40198b3aU, 0x3e120f874031dd5eU,
  0xbfdde52c3ed93f8fU, 0x3e03377bbf5a56c1U, 0x401fc37440206a03U, 0x3f8041ae3fde03dcU,
  0xbfb0de60bf9adbe7U, 0x404eacb6befdff0fU, 0x404e0c023cc36bfcU, 0xbf1e790e3ffbde73U,
  0xc00a6fb3bfdd9aa5U, 0xbf9245f0be9a11dbU, 0x40197070bfc1a4f8U, 0x3f2063e4bfd84485U,
  0x4009ed143fb688a6U, 0xbfa64ff340137c3eU, 0x40082ea1c0674122U, 0x3fe7d98ac03591c2U,
  0xbf8b1f81bd8b7b0bU, 0xc00bb798bf4f209dU, 0x3fc6f48abecf8db2U, 0x3f3dd5d4c030cf16U,
  0xbf15f94a3f850fccU, 0xbdd826d8bfa5636fU, 0x3f8abda1beffcf21U, 0xc018f7c540393b7eU,
  0xc0384116bf4dd6ddU, 0x40c31ea24020920aU, 0x4004a47ebf9d5149U, 0x40063bd54090f3deU,
  0xbfcc048a3f9ff3d8U, 0x3f47bb9abf0ce5adU, 0xc0801b45c0903d6fU, 0x40489d95bfda49f8U,
  0x3f3c3427c05b9a27U, 0xc038dc423f5940dfU, 0xbd9298c8bf81e993U, 0x403b9c58bf943e1fU,
  0x40276d2ac02d6a28U, 0xc0a1ebf1400461b9U, 0xbf8b92c33f1788e9U, 0x3fa9eb393e26d28fU,
  0x3f7b690bbf4d694fU, 0x3fe046893f89e6a9U, 0xc0dfab54c0762e07U, 0x40a4dc45bd529b11U,
  0xc019b07ebf988f17U, 0x3d73919d408c20b4U, 0xbd6560d9400d55daU, 0xbfe6d3ca3f939a19U,
  0xbffd1a9abeae339bU, 0xbfefcd1fbf9161dbU, 0xbf811927bf78f740U, 0x4008d02ac01199e6U,
  0xbfc61e0e3fc9dd37U, 0x400e9940c0d2e977U, 0xc0839e06405b524fU, 0xc0107721be99215cU,
  0x401f85f7409aa79cU, 0xbf2ea01cbf30a0adU, 0x3ef6474c3cd110d8U, 0xbf8860b940155aabU,
  0xbf6f4cf5404a295cU, 0xbf9225c040628228U, 0x4036162c409d9f03U, 0x3f0dce07c0521ac4U,
  0x3f93b042bf5c9b2aU, 0x3f8df0c0c0179cb8U, 0xbfc15879bf03c781U, 0x3f7f8f103fbc27ccU,
  0xbf19c05a40350bafU, 0xc0d2e943408da2e4U, 0x3f91db8f402ea19fU, 0xc0324e0d3fc2eb5aU,
  0xc0424c34bfa62865U, 0xc024f5f5bfdd6c02U, 0xbff3d03bbfc353a5U, 0xc04328d74023e785U,
  0xbf9adc68bff94ae9U, 0x40480dccbfa5d7fbU, 0x3f26da813e96aebdU, 0xc033691ebeb8ecf1U,
  0xc037fbdb3fbc70deU, 0xc042925ac038e7b8U, 0x3d07b197bfbc87cfU, 0x404b1761c013e6ebU,
  0xc0504f98400e824aU, 0xbfc59bec404293b1U, 0x3fb456dfbd9d8a11U, 0xc007eb02c08e2a13U,
  0xc00589503f9c9be9U, 0x4042dc58c003944eU, 0x3ec9c9b1bfa6487cU, 0xbf1782ba3f9e7a76U,
  0x400f6ca53fe4d949U, 0xbfc919654019f186U, 0xbef081ffc0b25079U, 0xbf98d61cbf547759U,
  0xbff85cb240b74b51U, 0xbf99cf43bf3cb6c7U, 0x3faa5da2bcda55f2U, 0x3f1d4b47402692faU,
  0x3e4776583f93b761U, 0xbe3fc565be6de767U, 0xbf32c7c8401a5514U, 0xc04604953f6cb3ceU,
  0xc0296da0401de597U, 0x410a6c49c066292fU, 0x3d8ca3374080852bU, 0x3fffe5013f126befU,
  0x4024612ebfc49a07U, 0xbfaf29e3405b78f4U, 0xbf278d77bf92811dU, 0xc007fe264003bb55U,
  0xc01d321fc093f782U, 0x3eec06b1c0152ff3U, 0x40018207400b55e8U, 0xbe12499cc072ef6fU,
  0x402742c2408f6aa5U, 0xbf8fd0c6beec224aU, 0xc089c4983f9d82fcU, 0xbf8a6e3640aedd10U,
  0xc02b7812c06472f4U, 0x3f0cb61a402d5191U, 0xc0267adfc0cd3ee4U, 0x3f09fddd40ac4ae2U,
  0xbf6d62a73ff9dcd4U, 0x3f45b08140340a7aU, 0x40cafbe6c007b8f5U, 0x3ffe3b66bd9a490bU,
  0xc06f9aa1bfac8271U, 0xbf451862bee2b1a6U, 0xbf18c5dc3bdee150U, 0xc049ae73c0880ef3U,
  0xbfe7ab0a40647d17U, 0x3f41b87b408f9524U, 0xc018f25cc0b02a94U, 0xbfe4ace3c03cf18bU,
  0x3de7a2953fd57be1U, 0xbff6fe0b3febe793U, 0xbd4d5fd23fb85ccbU, 0xbf5f3fb3bf993f72U,
  0x3f1fb2bc407ea5b6U, 0x3fe4828f407913b9U, 0x4048368f40a744ceU, 0x3f04aacc4046d855U,
