/**
  ******************************************************************************
  * @file    network_data_params.c
  * @author  AST Embedded Analytics Research Platform
  * @date    2026-04-18T16:09:02+0200
  * @brief   AI Tool Automatic Code Generator for Embedded NN computing
  ******************************************************************************
  * Copyright (c) 2026 STMicroelectronics.
  * All rights reserved.
  *
  * This software is licensed under terms that can be found in the LICENSE file
  * in the root directory of this software component.
  * If no LICENSE file comes with this software, it is provided AS-IS.
  ******************************************************************************
  */

#include "network_data_params.h"


/**  Activations Section  ****************************************************/
ai_handle g_network_activations_table[1 + 2] = {
  AI_HANDLE_PTR(AI_MAGIC_MARKER),
  AI_HANDLE_PTR(NULL),
  AI_HANDLE_PTR(AI_MAGIC_MARKER),
};




/**  Weights Section  ********************************************************/
AI_ALIGNED(32)
const ai_u64 s_network_weights_array_u64[1185] = {
  0x3d0562dcbe928663U, 0xbe6006fe3e511004U, 0xbed124d23e22b733U, 0xbe439a29be4a1d9eU,
  0x3e54609fbe7dea03U, 0xbe5de2563e5e7cbfU, 0xbd116548bd2a5360U, 0xbdd1fbcfbcd8f660U,
  0x3e8a5186be2ac331U, 0xbea02c763e9dbeb9U, 0xbe00a38b3da5c827U, 0xbe598eb83e8595d7U,
  0x3e9753073b95ae60U, 0x3e1e732bbe8404f1U, 0x3e0b67a7be81a82bU, 0xbe44adee3ec13547U,
  0x3e8ab3f4bc556d2eU, 0x3cd01b0c3bb52371U, 0x3c154900bd34ff30U, 0x3f00b5a4be7266bfU,
  0x3ed59c933df4d04fU, 0x3d96f6943ed63d0bU, 0xbbd3f84fbe81283fU, 0x3e7e5e853dc1b236U,
  0x3e50db1ebe2abf04U, 0x39b16dd3bde0f34fU, 0xbe8a649c3ea4df31U, 0x3eaadf0abe51da84U,
  0xbd7c81cc3de26930U, 0xbe1d04d63e75a503U, 0x3d11a380bebb6dfdU, 0x3e04cac83ece5d84U,
  0xbd987ac83e52bcb9U, 0x3e466ca43e63a7dbU, 0xbdb4b0843f0c4998U, 0x3e906e053e92dfe5U,
  0x3e43bc313ee8a89bU, 0xbeb328fa3e6ac284U, 0x3e1e63973e4f71ffU, 0xbe622c93be3a6ae0U,
  0xbeb0e6fdbce69cc0U, 0x3e5d4b6f3d4dbea9U, 0x3ea02fd2be05b503U, 0xbdb1273e3ea2687eU,
  0xbe2835d3be0e2f9eU, 0xbe2028e4bbbb5ae7U, 0x3ee52c913e6d7062U, 0xbdb0e8b0be25511eU,
  0x3e55f619bc2b9136U, 0x3ea5009bbe499f38U, 0xbdb5679cbd0667ebU, 0x3e5156e53ecd5c9fU,
  0x3e2f62c1bb06299aU, 0x3df902f2be802083U, 0xbcb088b0be0e0a78U, 0x3eb44d1dbe66014dU,
  0x3d5a2392be87e512U, 0xbdf244b43da24de0U, 0x3ec9eb8bbe242731U, 0xbe3297e8bd1f6436U,
  0xbdb28497bddb1c5fU, 0xbdb748263eb2e8c2U, 0xbe8d5ec4be09ed07U, 0x3e001753be9abc61U,
  0x3eb3345ebe11766fU, 0xbe37e96bba8cab95U, 0xbeb32fda3e905521U, 0xbe8bcc223e21878dU,
  0x3ea49006bbbf4b4cU, 0xbdf2adfbbe8c57f3U, 0x3e5aec8e3e911324U, 0xbe57bc943e4a3187U,
  0x3da1acf5bb087ba5U, 0x3edce5fcbec021b5U, 0xbdd7f4e5bd57dadfU, 0xbdb5179cbe5b752eU,
  0x3ed4cb0abd8da762U, 0xbe9adc91be98fc2bU, 0xbe1d84e1be92010fU, 0x3d7cdff9bd8ae76cU,
  0x3e8004013df6026cU, 0x3d177c3e3e9abf0eU, 0x3e884570be4560f2U, 0x3e25f58dbca6931aU,
  0xbe15450039bf7a5cU, 0xbe3554953c6b181aU, 0xbd6bbd1cbe50166cU, 0x3d34ffe43e68104cU,
  0x3dbcae5cbddbf03dU, 0x3eab1b003e66b488U, 0xbe30d32bbe3d8586U, 0xbe2bec33bd85ea10U,
  0xbe28fe193e7fd926U, 0xbe41fd39bd6de14eU, 0xbd68108d3e6a4220U, 0xbe8ccc6b3d6f5b2fU,
  0x3d4d614c3c6d3052U, 0xbce1db6900000000U, 0x3d9a4ffd00000000U, 0x3d9cb11ebd53b3f8U,
  0xbd273891394a4084U, 0xbd87f2d43ce5e9abU, 0x3e3f9ac700000000U, 0x3cf7dd313bcd5c23U,
  0xbac4f822bcac295cU, 0x3b86b2513db94ceaU, 0xbdc64d303dbf944aU, 0x3db1508f3ed7bdbbU,
  0x3cd6774c3d2dd813U, 0x3d11273a00000000U, 0x3cf33824U, 0x3c806631bc1e1a7aU,
  0xbc5a2da53cad3ca8U, 0xbd2edf45bbdf9f19U, 0xbcad62b500000000U, 0x3ceda7a500000000U,
  0x3e249770U, 0x3af53a5fbc870ed9U, 0x3e1cd79abd8b26c8U, 0xbcf78cb43e09edf8U,
  0xbbb885523ce83714U, 0x3d9dded900000000U, 0xbc135e4a00000000U, 0xbc92a07e3c7e8daeU,
  0xbc8ab6a8U, 0x3dba3d27bcaafce2U, 0x3d855d0000000000U, 0xbcdd21ac3d63d4a4U,
  0x3dd0a288bdcdc032U, 0xbd3d0b89bd1ac3f0U, 0xbe7d0703bdb6cc10U, 0x3d288830bd879604U,
  0xbe883829be4d7e21U, 0xbda5f17e3db083f4U, 0xbe094cb13bfcad80U, 0xbd8d8fa0bdf2dfecU,
  0x3df2adc2bd0b58fdU, 0xbcea1fdcbe395f9eU, 0x3e364fa1be6e9604U, 0xbe69c9663d1f1ef4U,
  0xbe0bfa823e1fd7bdU, 0x3e72e4e13d1f5e60U, 0xbe5f9274bc7afb88U, 0xbd8a36cd3dfacb30U,
  0x3e3653a8be7260edU, 0x3e3b2dcd3db0e6f1U, 0xbdd71bdb3ddd41e0U, 0xbba4d92d3d58d120U,
  0x3bc89b00bdb9f4a8U, 0xbe25f88ebe308a40U, 0x3e58450fbe1f6dc1U, 0xbe0b40713d5a594fU,
  0xbd016627bd8a8437U, 0x3d835986be049604U, 0x3e53b10abe0c2860U, 0x3dcfaa3e3d5b5074U,
  0xbdf8c0a03e0272d0U, 0xbe087450bdfeb637U, 0xbd71df603e127de0U, 0x3e4dc3a83e1e61a8U,
  0xbe7ae01c3de47bc4U, 0xbdb3495c3e796e1cU, 0x3e911eddbe176658U, 0x3d274041be7b07a1U,
  0xbea4b63bbe7e1d71U, 0xbd6c95aabe4d21b9U, 0x3e974fc03d8def08U, 0x3e01eee1bed6d76dU,
  0xbde8941f3e411934U, 0xbdcb28143ec0a513U, 0x3e0b6dcd3f11514eU, 0x3eb67a743e9009e2U,
  0x3e6cbb1d3e6f92b5U, 0x3ef2ff3d3b25b600U, 0xbe48b9f0bcd42983U, 0x3cfafa2b3dc71c58U,
  0xbe6ce909be4b29d6U, 0xbe83dc513e69c460U, 0xbeb30d0fbe3549acU, 0xbd6ceb8bbe794274U,
  0xbe3951783ec1845cU, 0xbdeb1011bdd5e770U, 0x3e9aa8afbd6688c1U, 0xbecc7bce3f1d95c5U,
  0x3dc73365beadc934U, 0x3e7ad0303cecd480U, 0x3d9736363b025e00U, 0xbdc19d1cbec331f6U,
  0xbe258c103e3d51feU, 0x3da238d3be82dcbdU, 0x3b25c7c9be18ab28U, 0x3e5264cb3eaf3ed1U,
  0x3e9d7efbbe201200U, 0xbbe28d203e152a20U, 0x3e455a9dbd76b2f0U, 0x3e9c8bd73e8d178cU,
  0x3ea6a8ed3e6fd237U, 0x3e3886443eaa580cU, 0x3dc39d02bdc64eb0U, 0x3e4952c13e96d09cU,
  0x3d7fad32bd1cafa1U, 0xbe3ba98fbe0efb16U, 0x3dbf614dbd10bd4aU, 0x3e528f17bd8abdcbU,
  0xbdd3cc003c9a77a6U, 0xbe391524be453c48U, 0xbd3a3a803d4609faU, 0x3e52377abc022b5cU,
  0x3d49110b3ded7023U, 0xbdf7319c3ceb7829U, 0x3c7f85af3dfc93b0U, 0x3e3a558c3e63ec30U,
  0x3da16300bb7c6f86U, 0x3d828ea3bdc2d5afU, 0xbe289cbc3ce87e53U, 0xbd07d88bbe7a8a51U,
  0x3eb98d833ec1066cU, 0xbeb52398be41583cU, 0xbe7734c53d0bb5e0U, 0xbdddd8cdbd3a492aU,
  0x3e2f80583e46d621U, 0x3e29a3f93dc2554cU, 0xbdf946c1bd8fb470U, 0x3e0ea86db95f8093U,
  0x3dd47048be320de5U, 0xbcb63da0be20e700U, 0x3e095fc8bdff2130U, 0xbddb0b703d36d03aU,
  0x3bf290dcbdbda8f8U, 0xbe08c5a7bd09a86fU, 0xbd8877933e0e0574U, 0xbe86f2b7be749d7fU,
  0xbe205c5cbe38ce20U, 0x3de38fa83d4621afU, 0xbd6ce81b3e66a3a2U, 0x3dc7d29c3dfa1852U,
  0x3d3ef04cbcc9af43U, 0x3c83df3e3b8d8880U, 0x3d0b9140be7ecc13U, 0x3daab03d3e1e59e4U,
  0xbe871ed5bbcada80U, 0x3e09c7f6be7faefaU, 0x3dc305703b0ee000U, 0x3e009e573dc85dc8U,
  0xbb78df00bd971244U, 0x3e29eaa1be46faecU, 0xbe0efdc6bce738bdU, 0x3da47090bd026f93U,
  0x3e60f221bdfc1bf0U, 0xbdc2a4703e08ee68U, 0x3e3a88cd3d913a30U, 0x3c7e4e5cbc28b434U,
  0x3d9ce2f03df3b390U, 0xbddb9fc43c360813U, 0xbe107b64be7d173cU, 0x397b6000bd04156eU,
  0xbcdbf2403c811b60U, 0x3da2f65dbe26deb4U, 0xbe36d72ebc94fb20U, 0xbe0349ec3d119775U,
  0xbe55fcb0be2ef644U, 0x3e455260bcbe75ddU, 0xbe3e6677be425968U, 0xbe3390ed3dc52430U,
  0xbe3d16383e3eeb2cU, 0x3dce83d03dbe8c08U, 0xbce66f3cbe25baccU, 0x3d38f61b3dafc87eU,
  0x3dbd4a60bdf0c398U, 0xbd930530bdad1688U, 0x3d09e9e0be7851d0U, 0xbc36a78e3e662f1dU,
  0xbe09eae33dca1498U, 0x3e636441be823165U, 0x3cb9a6b9be267db8U, 0x3e0b55dd3cab6460U,
  0xbe7814e03e1ab4ddU, 0x3d316b8dbcb0c6a0U, 0xbe2086cabe6d1bc1U, 0xbe29b3a73e2147e6U,
  0xbc3e87de3d4323b0U, 0x3db9c1ad3ded5a18U, 0x3e24ea6f3dba3700U, 0x3e579b77bdee2779U,
  0x3d31e7c03e08370cU, 0xbbdc330dbdbbf05aU, 0xbe07befcbe028870U, 0xbe084398bd07eb66U,
  0xbd9f7a50ba9f9cecU, 0xbe3d3328bdfddbb8U, 0xbe4c7f673dfa2ae0U, 0xbe638b74bd83d08eU,
  0x3e4a971abe71d3f4U, 0x3e277a25be20e519U, 0x3e3ccda3bd47f6a0U, 0xbd0ccbc9bd5386a0U,
  0x3e1e3780be7cd66cU, 0x3cbb31e0bdbac7bbU, 0xbde0bdab3c99c18bU, 0x3d8642d83db7c04aU,
  0xbe66bf49be4340dfU, 0x3dfb6c61bd128890U, 0xbe193a10be508dfbU, 0xbe872c953e1838e4U,
  0xbd008f723e489004U, 0xbe599ec2be0c7cbbU, 0xbe402655bd2f7600U, 0xbd780a303e75aa90U,
  0x3d191b70bd276ea9U, 0x3dc082483cd0fec0U, 0xbc9362053e0cc2c2U, 0xbb4878003e4c6503U,
  0xbe652178be412ff8U, 0x3e75e5a8be04f46cU, 0xbd695bd33e736a64U, 0x3b995fbcbd534510U,
  0xbe240d943dde7fa3U, 0xbe60e253bd9f7908U, 0xbd53b8a03e4a27b4U, 0x3d7cca803d7aa482U,
  0x3e525395bba99bc5U, 0x3eb93273be7a20e8U, 0xbe436720bd8dfc88U, 0xbe22cd083d5cc466U,
  0x3d60405bbda1f0a2U, 0xbd20e64d3ee57b5bU, 0x3d59be123dfd2c30U, 0xbe13c4513e40c5c2U,
  0xbc9fe24abe9ebb98U, 0xbbfbaf903e076dd4U, 0xbd9aaf3abe8af311U, 0xbe05631f3daadd5eU,
  0xbedcabcb3e4ecc45U, 0xbeb184883e4b1168U, 0x3e449868be1cb42cU, 0x3ea66b1c3d9a4183U,
  0xbc8388483eb99c99U, 0x3e41c2e53e8a1cc8U, 0x3eb61f3dbd093bf0U, 0x3edf592e3dad50a8U,
  0x3d073f80bdf8664aU, 0x3e94d84d3df47938U, 0xbe4387493e9be155U, 0x3edc8466be76e5f6U,
  0x3ea873ff3ca83ff7U, 0xbeb1f52ebce78940U, 0x3e401ca93d34bd00U, 0x3da1a3073d1e1c4fU,
  0x3e74939cbe50d35aU, 0x3e3705013df8ea8fU, 0xbc4fdc0ebe3cd1e4U, 0xbe585181bdf560a8U,
  0xbeb8dad73ea8290dU, 0xbdb88c2abcfb9a60U, 0x3eb7faedbdb95928U, 0x3d27db9cbe5162dcU,
  0xbdd9e1f6bcc5010eU, 0xbceb25ec3d7920b0U, 0x3e9cd14cbe5c094cU, 0x3df8c450becb315dU,
  0xbe900f8c3d97bf3dU, 0xbe4dd6d33c13c525U, 0xbe304c983f00e1f2U, 0x3e9ef52e3ebf56d1U,
  0x3e9d22203e2fc254U, 0x3e7534efbe5f3ddcU, 0x3ccd50403e9736c7U, 0xbe898dfebd6845cfU,
  0xbe8ff4d1bd13e9ebU, 0xbda98e08bc6cf146U, 0xbe01df9dbdea1f80U, 0xbdae584bbdb26908U,
  0x3e0e52bc3e2dc8c9U, 0xbe769f91be204dcaU, 0x3ef73f62be7a7dafU, 0x3d6f80fb3e4c5fe7U,
  0xbe4a4fa9beebe421U, 0x3ee762033e3126acU, 0x3d6c63f8bdf265d0U, 0x3e3d7f62be0e8111U,
  0xbd97cd80bdc1adcfU, 0x3e6bfe31be3c25cbU, 0x3e3709463e01a25cU, 0xbd9f75e33d0c5d5bU,
  0xbd07bbc03d3c6077U, 0x3cea62e0bdafdc10U, 0xbe8391d33e3d3058U, 0xbe6cbe1b3e730aa8U,
  0xbe6e9f783d740a12U, 0xbe7afc7fbe702874U, 0x3e4e251cbd64e800U, 0xbe59d4563db54a80U,
  0xbe507c6c3d569530U, 0x3e3c7c6f3dd20fd3U, 0xbe636358bb343810U, 0xbe1485883cf74e71U,
  0xbe42dc37be1a18b8U, 0x3e196b47be3f7220U, 0xbcdffd40be73632dU, 0xbe41b790be6b496fU,
  0xbe0bdbec3d6a3a71U, 0xbe7333dc3dbb50b5U, 0xbdfead48bd5f2980U, 0xbe587b78bd562ce0U,
  0x3dd38dc8bc50b6c4U, 0xbd0b6450bdaa4140U, 0x3e2e7e723e252084U, 0xbe5cf984be818e20U,
  0xbcdae4403d9327a0U, 0x3daa97a0bda724a0U, 0xbe360876be4f8914U, 0xbe40e3f63e458540U,
  0x3e6ce300bd6f3220U, 0x3e1fab31be177ef4U, 0xbe49ddff3dae52d8U, 0xbdb740283e24d255U,
  0x3dd154573acc5b79U, 0x3d9f48fbbe4b2608U, 0xbe52ba6dbe343aacU, 0x3e94246f3e9d2701U,
  0x3e4265ce3e357a62U, 0x3e97360a3ea07e79U, 0x3d7e8ff23e45798cU, 0xbd5943ac3ea13d3fU,
  0x3ebbdd393e10fe71U, 0xbc7fb764be8d77ecU, 0x3de3ad283d00490cU, 0xbe1f23c0bccdb281U,
  0xbc7a27653df5aaabU, 0xbe1d0651bddea088U, 0xbda48cf03dfd449fU, 0x3de43365be77f2b4U,
  0x3e6e41b33e835affU, 0xbd79f6403e93c4feU, 0x3e0f9e703d582ae0U, 0x3aa96da9be3eada8U,
  0x3dac4c403db46fbcU, 0x3dd3e28ebdc40954U, 0x3d9ad7bd3e57e310U, 0x3d994775bd507afeU,
  0x3e91d4723e922754U, 0xbf35e067bd8ebee0U, 0xbe5665bbbe0745bcU, 0xbda43a953d328173U,
  0xbda44d18be22062aU, 0x3d8436e03e1a8bc2U, 0x3e166a253d370dd0U, 0x3e172a0fbd77e460U,
  0xbe1c33753d05eec0U, 0x3dc32d8d3e1f24ccU, 0xbe01e578bdabfa88U, 0x3e1db7393d518779U,
  0xbdff16003df5baccU, 0xbe3c27a33e52e0c1U, 0xbe16b8923e0f18c0U, 0xbdc4afee3ca0888bU,
  0x3e101ca03c0ea2f4U, 0xbe22cb133e0ffb8cU, 0xbe6d22a83e17fbf4U, 0xbdd39cdfbe0903d0U,
  0xbda941383d619fffU, 0xbe7e5020be430814U, 0xbb631700be5547baU, 0x3c68114b3e35bfc6U,
  0x3d894f0b3ddae830U, 0xbe5a33d63d986d9aU, 0xbe2eca88bcccd7c0U, 0x3e53dbae3e36f7acU,
  0xbe57b1a0be582820U, 0x3e6b91edbde01538U, 0xbe7fb558bd8203bdU, 0xbe88f9d4be63aaa4U,
  0x3e0d2df33e2fd146U, 0x3df4faadbe62e77cU, 0x3e43cefc3e6cac78U, 0xbe8542aa3ddbce3eU,
  0x3e5c9b5c3e3bc858U, 0xbe41198dbe41ccd1U, 0xbbd17979be589120U, 0x3e3548413e01fc6bU,
  0xbd9ad320be318dc0U, 0x3da40f03be47c9f4U, 0x3e7babed3d731ef0U, 0x3d53afdf3e207723U,
  0x3e801c66be88bcd8U, 0xbe74669cbcd9edcdU, 0xbe1382fc3d8d7da8U, 0x3c96fcd5bcbae4f2U,
  0x3e6664533e3aed8bU, 0xbde0dcf23c3ee767U, 0xbdcb69e1be337cbcU, 0xbe7449d1bd2998bdU,
  0x3dd16feb3e5e7ee9U, 0xbc3834003dcb9220U, 0x3d8b6ca8bd5654d6U, 0xbe4323c3bd97fe0cU,
  0xbc228dadbd6a79a9U, 0x3e692ce53ac8db65U, 0xbe7960833de0fab0U, 0xbd7c6e66be5b9338U,
  0x3df6e9503d123997U, 0x3e3e838ebd4ad7a7U, 0xbe7d4dcc3e458411U, 0x3e44d090bb062300U,
  0xbd2ac256bdd57aaeU, 0xbe5bcb433d135500U, 0x3d7d07e5be62bfb8U, 0xbc85b21f3e3148d7U,
  0x3de6c5403c13c978U, 0xbd27fd34bd57d8f5U, 0xbcf6c9943e4056ccU, 0xbcab91e7bd93dde1U,
  0xbd9bb7c8bce88f00U, 0xbe522b10be12af9cU, 0xbdf5a758bc82e960U, 0xbe69e73c3da046b8U,
  0xbdd5d3f8be2f6b64U, 0xbe15bdf0bce64dc0U, 0xbdfce6483d8d63a8U, 0xbe2417a0bd712170U,
  0x3e1e3f943dc31620U, 0x3de36910bcbc39c0U, 0x3d607e10be69ac00U, 0xbc202c40be7a3954U,
  0xbe1101b0bdb2c550U, 0xbdcdb0383e1f3410U, 0x3e5e5650be6b12ccU, 0x3e03ea40be676decU,
  0xbd0955f03e4cdaccU, 0x3e4764f83e4371e0U, 0xbb79ce00bd17de10U, 0xbe7992283e6e3118U,
  0x3e0248983d851410U, 0x3cf5ee003d8a2018U, 0xbe4cd0503dcee0b0U, 0x3d78e790bd6da760U,
  0xbdf7c5b83e1cd720U, 0x3e446fa43dd2e4a0U, 0xbe332b74be54fb70U, 0x3d9f7c38be089a94U,
  0x3d374e20bc9a9f40U, 0x3dfd35a0be33bab8U, 0x3e1cebec3e703658U, 0x3e0f3740bcbe68c0U,
  0xbe5053573edadedcU, 0xbecaaa56bc150cc0U, 0x3d8040fcbe7c2488U, 0x3e8b2b9cbc9982e0U,
  0x3dcc6fdebe92b361U, 0xbe70ded4bec87c50U, 0x3e29979bbde52498U, 0x3ec6a25d3c247b87U,
  0xbea6201c3e266060U, 0xbe50706e3dab197dU, 0x3dbd63c83f0ea10aU, 0x3ed518d33e700980U,
  0x3f40bb843e8f8c84U, 0x3f139ba03e6fcf80U, 0xbe47df483e4730e6U, 0xbea892193e9b27cdU,
  0xbeb39777be9fd7c9U, 0xbde5dd3b3b37a99eU, 0x3c9f3c453ddf9f10U, 0xbda00ecfbe6e41f4U,
  0xbe7884443e7625eaU, 0xbe125fad3daa03f8U, 0x3f0d35b2bd8ec265U, 0xbe1f26b53e429f4cU,
  0xbdca9516be39e787U, 0x3ed277f03cce7d20U, 0x3df1a228bcf34180U, 0x3e2779adbcf1f75eU,
  0x3e49f1943da1342bU, 0x3de772d8be3ba147U, 0xbc8867edbe3d2530U, 0xbcafb8613ebfb8a3U,
  0x3e797150be32b348U, 0xbd99b7b0be2f8df8U, 0xbe2e05b43e607960U, 0xbe2d1ab4be118668U,
  0x3e313bcc3e05c0fcU, 0x3e7c2570be361a1cU, 0xbe5040e83e0c6164U, 0x3d1f78b03e702f90U,
  0xbe75bb703b5e6e00U, 0x3dc6cc503de825a0U, 0x3e5ad7743db23720U, 0xbd0d83103e5a2608U,
  0x3d138d50be5658fcU, 0x3e59b36cbe7d2974U, 0x3d4d5e30be090078U, 0x3d660c203db6e638U,
  0xbe656418be1a2b30U, 0x3c31e4403dfb4158U, 0xbd0932d0be150ad4U, 0xbdafff10bc982400U,
  0x3e4991b4bdcb84f8U, 0xbd8a0090be29321cU, 0x3e0e34fc3e5674a0U, 0x3e0482acbe51d734U,
  0xbd6094203dd5def8U, 0x3e4fe2283acb7c00U, 0xbe7645403e1925f4U, 0x3b2dcf00be796ee0U,
  0xbded0490bb452300U, 0xbda0a920bcbd7700U, 0xbe29750cbde77b18U, 0x3e63b804be4f4c00U,
  0x3e497e42bdf58f51U, 0x3d94760dbe127f38U, 0xbd350bc5bd8dfaf8U, 0x3e6f13963d2848c5U,
  0xbd5a94593e5d4ea2U, 0x3d931b703ead76acU, 0x3d81f134be63f448U, 0xbe1301c53ec146abU,
  0x3e95954abe5bed2dU, 0xbe15a4cebe847c68U, 0x3e82403e3c998c4eU, 0x3dabdd6fbd258b1bU,
  0xbe9f9acf3d1c7a8aU, 0xbd0bbca33d3641e0U, 0x3e4ad7ecbe5c32aeU, 0x3ec2aed5be7830a2U,
  0x3e7695cdbe01980aU, 0xbd271ea23e992158U, 0x3e11daa5bde6beb0U, 0x3e69cc063dbb5c68U,
  0x3ddb6fd83e37faf2U, 0x3d93ba1dbe1c3bfaU, 0xbe4978303db33ca4U, 0x3e48e99ebd4bed55U,
  0x3e274e3f3e22c273U, 0xbf070b773e364be4U, 0x3e4acba3be0745ecU, 0x3e2b02b73e833210U,
  0xbb120800be337e91U, 0x3e1326413e98c1a1U, 0x3e38979a3c389ac0U, 0x3e6679483ddfe90dU,
  0x3ea5e58dbeb80bf6U, 0x3dbcc034be448d48U, 0x3e5d5dd43e400460U, 0x3e7b7d9f3e34f65fU,
  0x3e32b035bc24cf06U, 0x3c201a7a3e9ec70cU, 0x3e59c96d3d8928e8U, 0xbd812a5d3de0bb40U,
  0x3d981d82beba54e4U, 0xbc67c861be5b1e44U, 0x3e8d4916be02a1b9U, 0x3ca6615b3e6bdae6U,
  0xbeef40703e7d3b96U, 0xbe2e474a3c53e500U, 0x3e4ada0cbe7b2233U, 0x3e02dee93e05d8a1U,
  0x3ea6c4333e7b0eb9U, 0xbc208a273d28f9d9U, 0x3ddc68803d2724d0U, 0x3e9bac523d3ed150U,
  0xbe3c7ac8bdfadcd3U, 0x3d345880be430924U, 0xbeb063e83de34095U, 0x3deee4fbbe8ca6ecU,
  0xbcdf72963ef843cdU, 0xbeebf22cbe58e694U, 0xbdaa5004be3edda8U, 0x3d06515c3d956a92U,
  0xbe02148c3d7758c4U, 0xbc26d7583d1a3d26U, 0x3e4e8fa83dfe2908U, 0x3e2c4d60bce74413U,
  0x3ecd3320be833978U, 0x3e9691813cf09fe0U, 0xbe44cf18bd624210U, 0xbd44abd93e6bf5ebU,
  0x3e05b4ae3d01c996U, 0x3df7674e3ea9eebfU, 0x3d914ae63e2295ccU, 0x3e60d2413ea87518U,
  0xbd8a271ebe76074bU, 0x3d409df4bdf5eea8U, 0xbdd01dd7be3e692bU, 0xbdb589903e59dc01U,
  0xbeceaf253e010ba0U, 0xbe42f30cbce06b80U, 0xbc32bf80bd3bd737U, 0x3dd2521e3dff1383U,
  0x3c38850b3e17e0b5U, 0x3e45342cbcbb0c69U, 0xbd321a143e027a28U, 0x3ee74dca3e5df948U,
  0xbe09aa303d911164U, 0x3e3b85b63de7b461U, 0xbd86e484bd9d8563U, 0x3e0870b1bea02fe9U,
  0x3e6f6ab23e321983U, 0xbf007f413e1d1c9cU, 0x3e6db5a43dd9c540U, 0xbc846f263ed17e06U,
  0x3cf91560be4f446fU, 0xbe4b5db13e9ad01bU, 0xbde9266ebddefea8U, 0x3dbfa3433cecf86fU,
  0x3eedd1f1be963d74U, 0x3e99487c3e03de60U, 0xbdf3b549be5a6540U, 0x3cda0bdcbb1ff88aU,
  0x3e9ee1cf3e918c65U, 0x3e6171cf3e347bf8U, 0x3e3ab920bd9aa608U, 0xbe3163183e19b3f1U,
  0x3ea7fe5a3db518f5U, 0x3e8bd63ebe825d32U, 0x3d9e395abea3d00bU, 0x3c59d8c3be08517fU,
  0xbed78d923e8fd88dU, 0xbed8152bbe5fbe6cU, 0x3e6f4928be694144U, 0x3e716bfc3d7dd2caU,
  0x3ed352943e6c34f4U, 0x3e3e93ef3e69a99eU, 0x3e94199d3cd7f7c0U, 0x3e823bfcbdb36150U,
  0xbe7417283e71d0b4U, 0x3e8951543e121af3U, 0xbaad5a0a3e8a41d4U, 0x3e2c04b43d44d0aaU,
  0xbd174edb3eed4d58U, 0xbf1e3f76bd18b6a0U, 0x3bde71debe5cc8a4U, 0x3de7365b3ea31460U,
  0x3d9fb2603c99d64aU, 0x3e7fce76bcb19242U, 0x3de989bc3d950d48U, 0xbe510ddabe0237efU,
  0x3d8be4e0be2b5768U, 0xbd618a863e0d70f0U, 0x3d6c8540be545918U, 0xbcfce25cbd9f27f4U,
  0x3da69d50be8b0a0cU, 0x3e1f528ebe74c165U, 0x3e607dce3d6d9850U, 0xbc8a45d23d953725U,
  0x3c325cd23e2af425U, 0x3c4b13f43e2b5d89U, 0x3c0ab801be46cbd8U, 0xbda39f72bdc386d9U,
  0xbd5b7c67be30bc95U, 0xbe22f098be671978U, 0xbe20a3a43da87f5cU, 0x3dd8fb2dbe6e306dU,
  0x3d9ee3b2be7e442eU, 0xbe21302a3d94e505U, 0x3d443d37bcd32ea0U, 0x3e438a47be068cb0U,
  0xbe5bea003dfb5258U, 0x3e11e05f3e3b0b61U, 0xbe310ab8bdeca316U, 0x3db93081bdc44428U,
  0x3d8679d93e35c356U, 0x3b92460bbcd05f60U, 0xbe6f75c23e6f23b0U, 0xbe8636a3bd438220U,
  0xbdb3eed8be4d80ccU, 0xbde8a614bdaddb33U, 0x3d7e91d73d7eaf50U, 0x3d62e223bd683d4fU,
  0x3eccf57bbedb002dU, 0x3eb1a1c53d6d0a90U, 0xbe6630f7be564380U, 0x3e855c923eb13494U,
  0x3e63e1133ebf7490U, 0xbd219dd13ec11bf5U, 0x3e852296bde998c8U, 0xbe2b1c6a3e6bffb2U,
  0x3eb4188d3ab4f3adU, 0x3e5218a73d0aab25U, 0x3ea10a68bec68149U, 0xbe830efd3e32628fU,
  0xbe1a77fb3de6c27fU, 0xbeebec503dc87ba0U, 0xbd81ecd83d8f7e3aU, 0x3ebc0e083e32c248U,
  0x3eb9c72c3e8b2227U, 0x3deda0123da7dedcU, 0x3e4d42ee3dca1cc8U, 0x3ee10d73bdf8d0e8U,
  0x3e12b4703e238e38U, 0x3e25fbf5be595321U, 0xbeab345ebd446bdeU, 0x3e3dcf3cbd272f43U,
  0xbcdcbaa93eb4e9bdU, 0xbf1911abbb834500U, 0x3e369d1dbe717670U, 0x3e4752ce3e1c3745U,
  0xbe690ee0be0dc268U, 0x3bb07a243e126395U, 0xbe18450bbe5a2d98U, 0x3e8674d1be81b4bfU,
  0x3e5f28983caa4420U, 0xbe674e80be204c68U, 0xbe430e943d18d680U, 0x3e21c8ac3d0c76e0U,
  0xbd99d8a03cf0ea00U, 0xbd6d27a0bcd11c60U, 0xbe5090183e1acd70U, 0xbe2f5d34be698580U,
  0xbdc5e3b8bdd76480U, 0xbe7b64d8bdb46840U, 0xbde602e0bd9d0e58U, 0xbd1c1ad03ce79f60U,
  0x3d5452503e3143dcU, 0x3de8ac08bc811b80U, 0x3e5044c8bd173080U, 0xbc8446203e05b6ccU,
  0x3dc627883bcbee00U, 0xbe610664be7e3658U, 0x3e179ad4be6938a4U, 0xbe332c98be13b16cU,
  0x3d021270bd4ef9a0U, 0x3e2b7218be750ba0U, 0x3d9522983dbb2760U, 0x3ddadfa03cd767c0U,
  0x3e3a7cc43dbfd678U, 0x3e158fe83e39e648U, 0x3de13db8bded6668U, 0xbe509d68be77dde4U,
  0x3be84200bcf3ad20U, 0xbc4ab4803d4d1260U, 0xbe21e858bdd57a20U, 0x3e6a19883e28b4ecU,
  0xbd60d8c4bda4a625U, 0xbc8efa933e179564U, 0xbcadb6c0bd1e6010U, 0x3dd3a52ebd4f4cafU,
  0xbe5ed81c3e03eb6aU, 0x3de70c5fbe8fae98U, 0xbe602b3cbe03d6f0U, 0x3d9e2a9f3e565aa8U,
  0xbe05d0a1be4facb7U, 0x3d98b919be3c7047U, 0xbb7254afbe2ae14cU, 0x3cdfb9f83da125d7U,
  0x3e130a633e3fc6f4U, 0xbe135e71bd8519e8U, 0x3e5883643c66d2ffU, 0x3dcee874be567a56U,
  0xbe8ab0d33e2d49e7U, 0xbd4e48103e4ad68cU, 0xbe7d992ebdac2170U, 0xbe2adcbabda5ae88U,
  0xbaf036003cd0d2bcU, 0x3e42dcebbdcbc1ccU, 0x3d2e554cbe760cd6U, 0x3d43b828be5bfe7cU,
  0xbe868f853e1e6a88U, 0xbe568fb13e223dd4U, 0xbdb0a954be1c3510U, 0xbe0c523cbe845925U,
  0x3d609200be5a99a4U, 0xbd910520be8a2d3fU, 0x3c532a7a3e3247f0U, 0x3d60534dbdba705cU,
  0x3ca53066bdab16a7U, 0x3ec952b13e1c20dcU, 0xbe5b0d5d3d73f0d0U, 0x3e2b891c3e8a4d73U,
  0x3e8b353e3d786e83U, 0x3d0d33243ea81348U, 0xb99dc3883cb4fee0U, 0xbe41b31c3edb2772U,
  0x3dba2c6abcd181c8U, 0x3e59be47bcf2a7c7U, 0x3db61ef03d8a8f62U, 0x3cccb5be3de6a79bU,
  0xbe0eba9a3e46fc17U, 0xbe2c1400be7945b8U, 0x3e725290bcb6d714U, 0x3e4167c8bdcacaa8U,
  0x3ed3f43cbb67c312U, 0x3e710de73e2c64e4U, 0x3e36c1d73e70c7c8U, 0x3e851541be1696e0U,
  0x3dfe91783d0b9dd1U, 0x3b08cb48bd6d4878U, 0xbe7167103d868428U, 0x3e21d6c6bec53e91U,
  0xbcea6ffb3e2b3428U, 0xbebcebc03d511710U, 0xbcc9e8bd3dda3418U, 0x3e7fd4043ea43cdcU,
  0xbd7d34203e6a75a8U, 0x3c5221933e0eb79fU, 0x3dab0a613e5c50f0U, 0xbe664c37bbb8fc9dU,
  0x3d830bbebead37a1U, 0x3eb0dcfdbcb646c0U, 0xbdafeb9f3e6d774cU, 0x3e81b8bd3eccb377U,
  0x3e97e2533e5cb225U, 0x3e86fca73ece8d2eU, 0x3e8e9ec9b99d4800U, 0x3d2fcb4b3d4bdd23U,
  0x3e05b5163c18eecaU, 0x3e717944bea8c0a1U, 0x3db1fd32be19d397U, 0x3ddaa3a93e1e37ffU,
  0xbec9af6c3dd3db5cU, 0xbeb0456c3d084490U, 0x3e759468be95b08aU, 0x3ed2ab0b3dd91e9eU,
  0x3ea088473e9e8fd6U, 0x3e591e7dbc3a2291U, 0x3db882b5bdf18c68U, 0x3e263df6be4e6c80U,
  0xbe6e65e43dacb63cU, 0x3e99b59dbd9ae465U, 0x3b3a0e253cc0c026U, 0x3d737902bee565c3U,
  0xbcf110a13e494d62U, 0xbf1e1e823e28c360U, 0xbe6336f6bdb9c7e8U, 0x3e1506763d8a97a1U,
  0xbe1d6c84be5f6e5dU, 0x3c8c2cd23cf4687dU, 0xbe0249abbd87b380U, 0xbc0c742c3e365a84U,
  0x3e3217a83e2fc490U, 0xbe729224be679840U, 0xbe113288be2c4290U, 0xbdf5d038bd142980U,
  0xbe5f70a0be76a4e8U, 0x3e17fa003e75ac64U, 0x3e61b7d8bcf8aee0U, 0xbe2fcb743c03cf00U,
  0x3e5bbdfc3d108ad0U, 0xbe706e68bd52f2f0U, 0x3d806260bd8af3c0U, 0xbe2391a8be4dab78U,
  0xbdf8d6a8bd0796c0U, 0x3e7b624cbd29af20U, 0x3e4bdc6c3e7a8a84U, 0xbe2aa94cbe2afab0U,
  0x3b827080bd98cf18U, 0x3ddc0278bdb36e58U, 0xbe36bf1c3e50d63cU, 0xbda7d2603e582a48U,
  0x3dd34e90be2a8070U, 0x3e3df500bceba560U, 0xbd893a983bdf3980U, 0xbe479c603e0789d4U,
  0xbda15d98bd87a3f0U, 0xbd55eac03e1cc78cU, 0xbe05f528bdcbe648U, 0x3c4953c03c883f00U,
  0x3e0f0a643e7d07e0U, 0xbda80e20be588594U, 0xbcc5a9403e54675cU, 0xbdc71e50be720b28U,
  0x3ec4b807be9d0617U, 0x3ebf93c13dd1fae0U, 0xbcc8163cbda3e450U, 0x3dd1bc853e4e6a07U,
  0x3d1602ab3d0beefeU, 0x3d87c8873e8de15fU, 0x3dcdc499be1d2b70U, 0xbb7abeb63e5b65f7U,
  0x3ed3dd8cbe840fe7U, 0xbb013cd4be113ed9U, 0x3ebbad14be91ed7fU, 0xbdef25fabe0ceb26U,
  0xbe8c04703eb18c2eU, 0xbea67f5abe777078U, 0x3dbd40603cac6cb1U, 0x3eb84cf7bddd18faU,
  0x3ebc99dc3e711e3eU, 0x3ee54fe43eb8cac0U, 0x3eaa6ca2bdf21e90U, 0x3d8b27473dde3048U,
  0xbde9edc8bd294ab0U, 0x3e92dee7bc4dbbc5U, 0xbe98a0bd3ebcafc3U, 0x3e7e56ae3d5eb5cbU,
  0x3e7430f43ebe8203U, 0xbf245a24be26b9acU, 0x3d97e378be02fcacU, 0x3e645eda3eab8851U,
  0x3d4341903d6ba348U, 0x3d973f53bbefbc3aU, 0x3e1888c0bd1a4d50U, 0xbe2fec02bcc63755U,
  0x3e4726b1bea1a581U, 0x3e7d83a83e5e8d3cU, 0xbe359834bd8bdfd0U, 0x3e816b73bbf6a18aU,
  0x3e4a06883e82a3cdU, 0x3e4c571d3d19eb89U, 0xbb9e55e0be46ce58U, 0xbddc0e803ea46652U,
  0x3d4651093da9e4e2U, 0x3ddb75d43dd368a5U, 0x3c21b56dbe865907U, 0xbe55e7a23df7a0a7U,
  0xbc665b2e3e8a4541U, 0xbec9d2a43e21b3b4U, 0x3d84c248bd916e87U, 0x3ebb9472bd2a58efU,
  0x3df3fcb83e43389bU, 0x3e903194bd678579U, 0x3de643c5be391658U, 0x3ebe8765be1bbbdcU,
  0x3e02baa03da60463U, 0x3e8c1613be01090aU, 0xbe863f833ebed811U, 0x3ecb6ef93c4cd223U,
  0x3ecef4aa3e3f5403U, 0xbf2d9df9bca2af20U, 0x3e05594dbe735de0U, 0x3e1f10f73eafc112U,
  0xbe2457e0be6a169eU, 0x3db54cbf3e927900U, 0x3e5ffb52bd4f7970U, 0xbe375b23bd9a4a9fU,
  0xbcdf0c803c6eab80U, 0x3da175e03d5d7d20U, 0xbe16e0d43e4baa54U, 0x3e0af1b03d9fdad8U,
  0x3e43ebf8be752f84U, 0x3d889310bd6f89c0U, 0x3ce9b840bde628d0U, 0x3c7c6a003d9ee358U,
  0x3e1e26e0bdc631d0U, 0xbe1cd018be482f28U, 0x3e69e9d0be363e68U, 0xbddff3403d4379b0U,
  0x3e51a8843d511f70U, 0xbdd7a9003e5de8a4U, 0xbe141a90bda9c240U, 0xbe3e0660be236a9cU,
  0xbda10458bd9cb378U, 0xbe63b0c0bdd34a68U, 0x3db56648be009608U, 0xbdfdb2703e25b89cU,
  0x3dc06db8be38897cU, 0xbe76b1443d8cd170U, 0xbdbc4400bd06e890U, 0xbd147d70be550eccU,
  0x3e590c54bd44a260U, 0xbde8a168bca785c0U, 0xbe511de43ca63b00U, 0x3caaff40be5f5ff4U,
  0x3e1283d0bde607f0U, 0x3c0c2140be652998U, 0x3e7b1c48bdc32c68U, 0x3cad0800be462440U,
  0x3ed739bcbe857788U, 0xbcb31751be0fc670U, 0xbe46058c3e07ad9cU, 0x3d80f43b3ea2f2deU,
  0xbd992c913eabd967U, 0x3c873139bd211c9bU, 0x3e8b99933dba6308U, 0x3b86b1ebbd154ecdU,
  0xbc780728be6c80feU, 0x3ddb1e92be9caf05U, 0x3e9fc49cbeb4ca2dU, 0x3d83a6643e732608U,
  0xbd94d18c3e1e0692U, 0xbefa57c6bdc46598U, 0xbe3252ecbd1e4addU, 0x3d310ff73e24b9e7U,
  0x3e7c8ff6bc2c6c76U, 0x3e82d88ebd72db7fU, 0xbbe52a0abcc4f7e0U, 0x3e8d8ca03e4a6984U,
  0x3e39cc803d7b6374U, 0x3d49eb123e24b519U, 0xbea0a1db3e834c4dU, 0x3d9545edbe5264faU,
  0x3e81c5b33eb5ecd4U, 0xbf285b303e112080U, 0x3d34231cbe01c324U, 0x3e0631733d964877U,
  0xbd8535003d45e9f5U, 0xbe2697203e221287U, 0xbd93dc403e6df6fcU, 0xbd6f311fbbd1c1b2U,
  0x3de7a7183d1a4345U, 0x3d4e25c03e2393c0U, 0x3d4a0ed0bca02b60U, 0x3bc7a1803e5dc568U,
  0xbe560164bd261040U, 0xbc0452563db1ff84U, 0x3c18cf913c3482c0U, 0x3e2b4beebe5b1e24U,
  0x3c080900bbcb8600U, 0xbd054f20be8270d7U, 0xbc506ec0be864370U, 0x3dd4743c3d6aaea1U,
  0x3e0f8a8cbdc485a9U, 0x3dd9c0673e5b970cU, 0xbe7a1eb03e00ede4U, 0x3e4b954cbd9ce7c7U,
  0xbc1e6f003e4036d0U, 0xbddbd5f9be4a44c3U, 0xbe353f543ddebf10U, 0x3daa34e8be3ffbbcU,
  0xbd69cc20bd894c33U, 0xbe678d543dd85980U, 0xbe50f4f9bdcc6eb0U, 0x3e40d31cbdaca942U,
  0xbe773714be1a44d0U, 0xbd9ee110be79eb38U, 0xbe45b55d3dad0c70U, 0xbbe450f5be5f1a44U,
  0x3dc5ff483e1edb1cU, 0xbd826ff63dcf6b80U, 0xbe4178843e4295c8U, 0xbe7ab9bc3d933e55U,
  0xbe3f69143e401a04U, 0xbdd75570be6d0cb0U, 0xbe7396ccbe0cf6acU, 0xbdc937b0be70dc50U,
  0x3e0ca8a8be62840cU, 0xbe53cd0cbd962730U, 0x3d5a7fc0be12c24cU, 0xbe32d10c3e606b88U,
  0x3e164988be768144U, 0xbe51b8c03dbafcc0U, 0xbdb998183dbe8cd8U, 0x3e199168be40c67cU,
  0x3e5accacbd7ae0b0U, 0xbd1d32103aa55a00U, 0xbd76a990be7f0bccU, 0xbe122a703d8869f0U,
  0xbe5eaec43da3cdb8U, 0x3e13f578be282ee0U, 0x3d1c50a0be1a1a24U, 0x3ce29620be0833e4U,
  0x3c1d7540bcc4f760U, 0x3e53a480be1857bcU, 0x3e002c10bc1c66c0U, 0x3e3bcde0be329cf8U,
  0xbe5849c8be475780U, 0x3d6987d0be289930U, 0x3da43520be4fbb94U, 0x3e21df5cbd3633b0U,
  0x3e4043803ddb6290U, 0xbbafd7003e536e4cU, 0x3db0f3003e64f544U, 0x3ca6d560be3d4fecU,
  0x3e23a323bcaaee19U, 0xbc9f4d95bcf6e16dU, 0xbcf3f5fcbcaff108U, 0x3e1a0fa43c8e21e2U,
  0xbc056d6fbcb3f77dU, 0xbc96002ebcb2c212U, 0x3e43c83400000000U, 0xbd6d2b6500000000U,
  0xbd282931bcddb068U, 0xbc920dd53bc953c2U, 0xbd4e3297U, 0xbce7ebc8bcb85faaU,
  0xbd3c3a54U, 0x3baa2a453d373fa4U, 0xbca96ec600000000U, 0xbcd887faU,
  0x3f1b8dbb3e3508e3U, 0x3e8c56f5bea25dfdU, 0xbe94328a3d4d15fdU, 0x3f3c1be8bf1f9f8eU,
  0xbf0fded8beb6f1e5U, 0x3eba33b33e3b95efU, 0x3e98656fbea61e7bU, 0xbeae3c26be88d72cU,
  0xbe97b77bbeb28f6cU, 0x3eb7b3f5beefdfa3U, 0xbed2eca0bebad4a4U, 0xbf17a6813ea72c22U,
  0xbde4d358be97f97aU, 0xbf009731be84d7e8U, 0xbf14dcab3d5f5a30U, 0x3ea2aaeabec337f6U,
  0x3e06a869U,
};


ai_handle g_network_weights_table[1 + 2] = {
  AI_HANDLE_PTR(AI_MAGIC_MARKER),
  AI_HANDLE_PTR(s_network_weights_array_u64),
  AI_HANDLE_PTR(AI_MAGIC_MARKER),
};

